/**
  ******************************************************************************
  * @file    network_data_params.c
  * @author  AST Embedded Analytics Research Platform
  * @date    Mon Nov 25 09:05:26 2024
  * @brief   AI Tool Automatic Code Generator for Embedded NN computing
  ******************************************************************************
  * Copyright (c) 2024 STMicroelectronics.
  * All rights reserved.
  *
  * This software is licensed under terms that can be found in the LICENSE file
  * in the root directory of this software component.
  * If no LICENSE file comes with this software, it is provided AS-IS.
  ******************************************************************************
  */

#include "network_data_params.h"


/**  Activations Section  ****************************************************/
ai_handle g_network_activations_table[1 + 2] = {
  AI_HANDLE_PTR(AI_MAGIC_MARKER),
  AI_HANDLE_PTR(NULL),
  AI_HANDLE_PTR(AI_MAGIC_MARKER),
};




/**  Weights Section  ********************************************************/
AI_ALIGNED(32)
const ai_u64 s_network_weights_array_u64[19062] = {
  0xbf0ec1fe3d240816U, 0x3e1515273e8b4563U, 0xbd815d5e3e1e7606U, 0x3ec5dd0bbd740f52U,
  0xbd817ce9be998833U, 0x3bfbcd563c4d9655U, 0x3db559ef3db1038bU, 0x3da1d22b3df9d00cU,
  0x3e9ff7613e15278dU, 0x3d8a3a3abe34debaU, 0xbde7494f3e8ed2f6U, 0x3ecf8897be0109b5U,
  0xbeb1ada6bec99ffdU, 0xbe8eb3e33e087675U, 0xbda22f3cbe498585U, 0xbe691cd5bea95e54U,
  0x3e6825ccbd882c12U, 0x3eac4d2b3eb4decfU, 0xbe69f298bd80be3dU, 0x3e2d23d6be1a1f84U,
  0xbe3fbe98be336847U, 0x3e65856ebea8f3a6U, 0x3d90f3c1bdbfe9b5U, 0x3ea7c419bda89781U,
  0x3d5437593e43428aU, 0x3e1ce243be9e0c51U, 0xbe1d83fbbd100ae4U, 0xbeeded63bda12d6fU,
  0x3dfa5e77be5fa981U, 0xbf31fa7f3e49cdd0U, 0x3d85a971be22f408U, 0xbf1c23873dfb2e7bU,
  0xbe32c0b2bdc70e60U, 0x3d489bce3d7be18cU, 0xbe4404bb3c7ab87aU, 0x3db8385c3d33168aU,
  0xbe13d31abe8131bfU, 0x3df488eebc6e8b2eU, 0x3e0422c3be485a36U, 0xbe3f1d47bd576cf1U,
  0xbd06efe73d064dbaU, 0xbe5ee0693e020c8dU, 0x3e2a9679be5e3d3fU, 0xbe901ca3be01aaffU,
  0xbedc2d753e99cf44U, 0x3ea8b8d5bf127835U, 0xbeef5e8b3e9e79afU, 0x3eebac1fbe05b2aeU,
  0xbef48e933e7f4730U, 0x3e8b2bc0be96aa3fU, 0xbe94fe313e88bec4U, 0x3d82575c3d5bc15eU,
  0xbeee828e3ebee023U, 0x3b6d04a0be628680U, 0xbe80e1b93b694373U, 0xbd83e2a7bd812485U,
  0xbcc9c80e3c8b2e7bU, 0xbe8e6b4dbf2ac7b1U, 0xbe4612653aec30bfU, 0xbe6f231fbe9bd6ebU,
  0xbe49849cbe8bb56eU, 0xbe107005be8768cfU, 0xbe096caa3d8ab079U, 0xbe8eb0f1be52ff1aU,
  0xbe963471bc1dc00aU, 0xbe0a5caabea2b96fU, 0xbe8598fbbde949b2U, 0x3c9cd474be973376U,
  0x3eaa6b573ca19eedU, 0xbe795471be8ba35fU, 0x3e6c52c93e8f3c88U, 0x3e6567323da66b4eU,
  0x3e6f9f8f3da415b4U, 0x3e6bbbb7be259484U, 0x3e200c103e64b816U, 0x3e7d293b3e92e457U,
  0xbcdd4e023ea59e30U, 0xbe4fd62ebf4e2713U, 0xbdd20385bccb2d75U, 0xbe81b2343e65d14fU,
  0x3d9a2cfc3d02fe03U, 0x3dfe19b63e7a4da9U, 0xbe6494b1be192089U, 0xbef4b9cdbeea5022U,
  0xbe14a3cf3eb63091U, 0x3e6241e43daad0abU, 0xbd91f49cbe00d894U, 0xbdd0ef533e1f9758U,
  0xbe16cd953e68c28eU, 0xbdaa69d1be5b753dU, 0xbe6774193dedb404U, 0x3d03a371bd9c9020U,
  0xbcdd64e23dec6d9dU, 0xbe290d85bc9d4741U, 0xbda8ed69bd8c8e2bU, 0xbe82d1f2be2e0af2U,
  0x3e4cec2cbd4929eeU, 0xbd614b2b3e00ab26U, 0xbe53aec7be0099b4U, 0xbe0cdc7abcc117a6U,
  0xbe66ba21beb1a4caU, 0xbe1236f73d0c01f3U, 0x3e564d68be543036U, 0xbc518edc3edd7adeU,
  0xbe344210bd4b5e81U, 0xbad81e62bd025c4cU, 0xbe1ea629be58715aU, 0xba9952be3daafe5dU,
  0x3e9ca503bea490f3U, 0x3c8303ea3ec13e0eU, 0xbd5e11afbe88eab5U, 0x3e210d29be9178f9U,
  0x3df0aad3beec0d2cU, 0x3e7bdfdbbe84de74U, 0x3e039f65be97ce12U, 0x3e38bc3bbe51f3a2U,
  0xbe1572babe22e85fU, 0x3e89d631be8b6026U, 0xbd8a086ebdb6c1a9U, 0x3ebd9045bec4f34bU,
  0xbd9bbd12bc38a049U, 0x3ea36379bd87f080U, 0xbe1e57f1be3a983bU, 0xbeb0f5c53e37a550U,
  0xbd9c574bbe60e6e9U, 0xbee1d2473e46d205U, 0xbd80317bbe43923fU, 0xbe808f233e769e20U,
  0xbdb8ed793cdf8395U, 0xbf0680a8bbe1bfaeU, 0xbd4d6311bed59c5eU, 0x3de509903d57310cU,
  0x3e4c3abf3e7b3a11U, 0x3eca1e13bb8ecb49U, 0xbe7b36d93e887031U, 0xbdaf0d5abe963d2dU,
  0xbe46c07dbea98e7eU, 0x3e2c1d273ea8c341U, 0x3e62d7ccbe464c34U, 0x3d8044f73e1a8968U,
  0x3cae8ac93d2a4321U, 0xbd5a70edbeff0470U, 0xbe8812afbcb16003U, 0x3d7c87cd3dfdf723U,
  0x3c5a3810bea9b7ecU, 0xbdcb203b3dc9eb39U, 0xbac7d0253aa86ef0U, 0xbb8529a7bae422d7U,
  0xbad6d74d3a372d65U, 0xbacb686e3894ba63U, 0xba5cae78bac0ae91U, 0x3aa3b30839819520U,
  0xbadb22f2ba88d9d2U, 0x38c39b93ba3ce6c6U, 0x37258916bb0caf23U, 0xb99bf736ba359e3cU,
  0xba8cd8c8bb1e75feU, 0x3abeb806bb59f4cfU, 0x3ae4673eba98f6eaU, 0xbab775333a118acbU,
  0x38865eab3b062167U, 0xba9d73abbac90729U, 0xbade55dcbafabc0cU, 0xba3e3c96baee6b78U,
  0x3cab7b3fbf18c726U, 0xbf4a95df3dcf6a39U, 0x3d4a87eabeeef1b8U, 0xbf357c7a3e69c75bU,
  0x3dc48dbbbef0357aU, 0xbf649d16bd947fa8U, 0xbe2b1e1bbe89aec7U, 0x3e753bacbe53f4c7U,
  0xbdff46b4be4d5274U, 0x3eac99d8be226a9cU, 0xbdc47763be22754aU, 0x3ec83c77bdb8ea8aU,
  0xbd357ddebdfbbf40U, 0xbc90557cbeb28aacU, 0x3c1f5cd63d797445U, 0x3e1250fdbe0888dfU,
  0x3de591643d98426fU, 0x3de2b8123e07abb7U, 0xbce50ed33e915c28U, 0x3d95341d3f06b582U,
  0xbe0d88493dfd9c22U, 0xbe94fd0d3e39e1c8U, 0xbd7b60dbbd4c433dU, 0x3c1b6a27bc218defU,
  0x3d6a44f43dae6bdeU, 0x3e88514cbd502025U, 0xba3fcd71bcb78e03U, 0x3e94a7193e449d6fU,
  0xbe8ebcf4beaf3f12U, 0x3e712920bdd2024fU, 0x3e2a70ebbe36b5b5U, 0x3d51ea64bed927edU,
  0x3e0e9a6c3e713da7U, 0xbbe90c2cbdfe75d3U, 0xbd6ae0d43dbdcde3U, 0xbdc45a9abed00d61U,
  0x3e7efc4fbd5728bfU, 0xbd7ac7ee3e198318U, 0x3e84e1883d98e3fdU, 0x3dfaf02e3d813cc1U,
  0x3e4103da3c54d22eU, 0x3cb2a8763d99103eU, 0xbef67561bd5ec4c0U, 0x3dc4c3db3ec7ef78U,
  0xbedb332cbe846291U, 0xbcffb0543e4b3a7fU, 0xbee52f92be229c24U, 0x3df1f9fb3e01b573U,
  0x3d8f72aa3e3bb54bU, 0x3c9c04febedc17cbU, 0x3e0ebf8f3dbb26d4U, 0xbc94d849be2cb299U,
  0x3e315ae03e985250U, 0x3d0134ffbe807c04U, 0x3d9c2377be82ef60U, 0x3d7f90bebc2e92cdU,
  0x3e6c14c93d210c56U, 0x3c43eddc3e29df84U, 0x3e6c770c3e816605U, 0xbe660f8a3df9a4b1U,
  0xbded60203eb2b9b6U, 0xbe0a76febd894d2aU, 0xbe0d54683e9602b0U, 0xbe5d6b07be06b5fcU,
  0x3bbba396be3f1887U, 0xbd46abcdbccd4e12U, 0xbf8d6e163eb5c4efU, 0x3cd1b87b3e77fad3U,
  0xbf8b22b1bd997901U, 0xbe08a2553e1e53d9U, 0xbf57e8a43ede8098U, 0xbe238ea0bdcc6590U,
  0xbe2fa10ebea8d008U, 0xbe29d5193e8f9f48U, 0xbdd08db53d798512U, 0x3e105e25bcf81efbU,
  0x3dd24f2d3f055df1U, 0x3ef3d02e3ef4c2b2U, 0xbe778ed43ebf97d8U, 0x3e308225be9c1c21U,
  0xbe5615593e2102fcU, 0x3cbf6c04bdab9b91U, 0xbc779de73e7637c2U, 0xbdc71ecf3ba793d6U,
  0xbd8ac8713e268c79U, 0xbdac1c59be636059U, 0xbd19ac333e1eb2d6U, 0xbd7bffcfbee4b4f5U,
  0x3da473183e077327U, 0xbd81e4f7be67a116U, 0x3e0d49903deecc36U, 0x3c185f8fbd881688U,
  0x3e0e7af13e53bdc1U, 0x3d0987393d8c70faU, 0x3b6d90ce3e53088fU, 0xbd42ffd43d84089dU,
  0x3e0e68b8be48ccfaU, 0xbf045374be802870U, 0x3da0407ebe1a3f86U, 0xbee0395fbda90774U,
  0xbdedc87dbeb82ba7U, 0xbe905fe73e0af6d5U, 0xbdef9cccbec10ddfU, 0xbf615f2c3b910a17U,
  0xbe354a1abf1f1d31U, 0xbf7a959f3d3afd89U, 0xbec918a6bf0baca4U, 0xbec155393e82e2d8U,
  0xbe5c2594be75491cU, 0xbddd792abd9c3363U, 0x3d6a5d61bd215339U, 0xbea1cbd23a24798cU,
  0x3e086114bca6e995U, 0xbe3ab2d5be0a5f39U, 0xbcff1e953e2d7ba2U, 0xbf7719c7be822dc6U,
  0x3df89d393e324e01U, 0xbf586dae3e4ecb9cU, 0x3e0ceeed3e8a67ecU, 0xbefa98193e4f0dd6U,
  0xbde40df6be12d04bU, 0xbe1185de3c8ad0cbU, 0x3cea2a583e3b2f69U, 0x3dbb32753ea974c0U,
  0x3dcdcf343d72796fU, 0x3e527edd3edfd404U, 0xbde537debd5ffaf1U, 0xbe471a203e8ad344U,
  0xbd8438fb3e25224cU, 0xbeb5fc43bd6f89e4U, 0xbd8fb22bbdd450c4U, 0x3e234d023e96b19eU,
  0xbe51d931bdd84036U, 0xbebcee903e64c945U, 0xbe346ad63e44d268U, 0x3daf55fcbd8aefc0U,
  0xbe781383bc7d80fcU, 0x3c9ddc573e419178U, 0x3e27c55d3ea17877U, 0x3bb2865cbed659deU,
  0x3e8db6da3f07ad11U, 0x3ded66c7bb197b46U, 0x3e8f3d9e3ea5af06U, 0xbc9cfc9ebf082d2fU,
  0xbdbdf5a43dae91b8U, 0x3c0605ed3e9f5741U, 0x3c0671f8bdc04c8aU, 0xbb531903bdd913f1U,
  0xbe85aaa93cf92c85U, 0x3d0a3be9be386d4aU, 0x3ea2d096bdfe7edaU, 0xbd1604a9bd283b4eU,
  0x3ebed8f3bc21e665U, 0x3e81cc0c3ec545c9U, 0x3f00d9a73ea02a22U, 0x3e98a3d83ebf8788U,
  0xbd519779bd920afdU, 0xbe2b4dcbbdebb11eU, 0xbdcc1a3ebd443706U, 0x3eb765663d9abbf4U,
  0xbdaf59dcbe8f57abU, 0xbec80d91be4ac9ceU, 0x3e5ffcd8bebf8249U, 0x3e25ddb53e8ba2b0U,
  0xbe7db0d13df3cf9cU, 0xbe70a6e73e0c0497U, 0xbdbf06fb3dc24531U, 0x3e25e6473d757a0bU,
  0xbc1adb6bbd2a1af6U, 0x3ce2498abaff46c7U, 0xbd77528a3e104d1bU, 0xbd09e4cc3d019b3eU,
  0x3d36c347bde44962U, 0x3d9d602e3cebeb9eU, 0x3df97e45bda3270fU, 0xbe25201abe394c20U,
  0xbe53c8c3bdd72423U, 0xbd2f7253be0dabeeU, 0x3aca4ac13d2273d0U, 0xbe38dd77bd654b77U,
  0x3dbe6eb73d3fb0d6U, 0x3d450bba3df6c92bU, 0x3e4985b93cea97dcU, 0x3e050e6d3e7a5090U,
  0x3d4095ab3d838a78U, 0xbd881f5abdb1ff46U, 0x3db244a8bc2fd385U, 0xbc8e5f853e252f3bU,
  0xbe4087863dd18aa1U, 0xbeb3fa5ebe847a7aU, 0xbdb313e5be928dceU, 0xbea9114fbe2345c3U,
  0x3e30ed433d33336fU, 0xbe753fbfbc0dfbafU, 0xbb810096be0600e6U, 0xbe7b93b9be679ed9U,
  0xbb8ae715bd845c47U, 0xbd8797293d969b1fU, 0x3e3ee1f83d9a1424U, 0xbe19fdf43e11389fU,
  0xbd48f2633d271da6U, 0xbdabf1dfbc012cddU, 0x3e00db4e3e4fa1a5U, 0x3e2a162e3d8c69c9U,
  0xbe7c02a1be7e81c3U, 0xbd8a7dbfbe6d63e5U, 0xbe23001fbe02804bU, 0xbdf13966bdaaf1d3U,
  0x3dc4c50c3e5efc53U, 0x3e97cf553e7f50caU, 0x3ea0514a3e8a1593U, 0x3ddd70e53e7d1626U,
  0xbc9d40733ec33d3bU, 0x3dcd0916be141d44U, 0xbe23f3c63d4e8041U, 0xbebf5e873ccd1d54U,
  0xbcc53f763da8c6b7U, 0x3ea2f6fc3e4f9b78U, 0x3ec457f93e3a65ccU, 0xbe65ddbb3da02138U,
  0x3e4f9cc73e1a9105U, 0x3e8b7b613e7d8a92U, 0x3eaa769f3ecd036fU, 0x3d2d19c33ed7b1a7U,
  0xbb0c2213bcda0467U, 0x3e56036c3da91051U, 0xbdf81f8e3df89c81U, 0xbe9c1fd7bda044e8U,
  0xbc1345a0be35a4a4U, 0x3e9e19c33d8054acU, 0x3d7161793e2b94d0U, 0x3e7c4f663e21f4e8U,
  0x3e9d4c7ebe3be781U, 0x3f1408bf3efa43c8U, 0x3eac2d163e86ff24U, 0x3e9374043e93599fU,
  0x3beb41e7be8913f5U, 0x3e4bc9f63bc9edf2U, 0x3de2a6103e8500f5U, 0xbefb3ab63e1037bbU,
  0x3c9f351dbe456796U, 0xbe25a2b1be86e921U, 0xbd18ff38bd8a49bdU, 0xbd6c7a203d1045c3U,
  0xbb144296bded87a6U, 0xbe0fc9553e1a1738U, 0xbd906f69be3b3b05U, 0x3c5f20e8bd00419bU,
  0xbe28950fbd3dcc69U, 0x3d8105e2beae299aU, 0xbf14260ebdd4c879U, 0xbe97350bbe41b884U,
  0x3d53d78cbd47f38fU, 0xbe1a4828bdb26b39U, 0xbeb3173bbe347c4fU, 0xbb87f175bd782e13U,
  0xbbdaa3943e4e1bdfU, 0xbdcbc3e53e889a52U, 0xbe8c6d55be03b271U, 0x3e1f4ce0be141ccdU,
  0x3e61b78e3ed83af8U, 0x3dbecbb73ea7a353U, 0xbe4a2cde3d9bf8c1U, 0x3bd446003dcf6c4bU,
  0x3ebc4e763ea78165U, 0x3e0f2b373e86d0b9U, 0x3ed2febd3e60ffdcU, 0x3ea3bab83ed9767bU,
  0x3edbb31b3eaa6310U, 0x3cf25f183e47302dU, 0x3e34e0503d816b3dU, 0x3e943b653e7756b2U,
  0x3e8edabf3d84ce02U, 0xbe0728763e3a5e06U, 0x3e5db7cabe0e8e13U, 0x3ec83df63df83924U,
  0x3e5d5c2fbd8ca8c2U, 0xbd5d5eeb3e272200U, 0x3e84b761bd37330bU, 0x3eddfcce3e75b02cU,
  0x3db507483d7603c5U, 0x3cf31e5a3c44c944U, 0x3e8ca04fbd0e722fU, 0x3d42fab13de2ccd6U,
  0x3e2acada3d1ab501U, 0xbbc8effabd432052U, 0x3e26d2e8be50217aU, 0xbe9641453c2bd258U,
  0x3e8c33acbcc0f16cU, 0xbe23f89cbe0e0f30U, 0x3e0de0f7be952b4eU, 0xbe8508e4bd80a780U,
  0xbd0a33b9bd4cdf59U, 0x3e31f8723cd373b1U, 0x3d580d2d3d688919U, 0xbd75e1fd3d93e76fU,
  0x3ebabdf63d1aa5dbU, 0x3e6ff8113d8f0c39U, 0x3eb15e863e0a766cU, 0x3eb42fbc3ebf0c9cU,
  0xbe1dc302bce67eccU, 0xbef5411abea38140U, 0x3dbb3808be20f2adU, 0x3d94fe3fbd3ecefdU,
  0x3db7ea143dc18870U, 0xbec5a954be12ccf5U, 0x3ccb0085beac871cU, 0xbd2b4ab5bc59a0b7U,
  0x3d1c0e0e3dae4486U, 0x3def93b03de11524U, 0x3e802be93e950d61U, 0x3e00b5e93d56dd10U,
  0x3df4077e3e801c6fU, 0x3e6351ec3e6a19efU, 0x3ed27ed03ed07ea2U, 0x3db73b133e1e8cffU,
  0x3dc8ce203df22750U, 0x3e07e97c3d87427aU, 0x3e07770f3dda1a03U, 0xbd2053933dd9672fU,
  0x3e6235efbe579d42U, 0xbd9607543e952375U, 0x3e86d4f53dfcd329U, 0x3e39b1413ec41ddcU,
  0x3c79ec68bd9ea800U, 0xbd233b003d49580eU, 0x3e0bb099be8547f5U, 0x3ca99e3c3ea06e09U,
  0xbc61b081be09f0d6U, 0xbe7f1ea63c4d2c7aU, 0xbdb5cec4bea38aceU, 0x3e3de219bcb03840U,
  0x3d5f2b18be7008bbU, 0xbede511a3d00a6b2U, 0x3d93c31cbbec58b4U, 0x3e3414c0bd6d818fU,
  0x3df72baa3d33ed67U, 0xbddd80d7bd292b59U, 0x3c9033edbe86e91eU, 0x3c9f1c5e3c8cd3c2U,
  0x3ea0a6663d093e2aU, 0xbdd2b5d6bd4cb08aU, 0xbc7e48c7bd0013fcU, 0xbea11dabbe12ac47U,
  0x3e82dbe0be198710U, 0xbd2180f93e111148U, 0x3dc78de9be955d8fU, 0xbececc213e0fef7bU,
  0xb91af749b8dec7d8U, 0xb928a49e38ed7d9fU, 0xb932182039806e21U, 0x396f4537b703fc92U,
  0xb92ad87ab8f9ab51U, 0x38d6cf00b95941f6U, 0x3870080a378c4326U, 0x393c5890b95d275dU,
  0xb817c742b8d89785U, 0x396c957db96245f8U, 0x393f253639086fa3U, 0x3935350e39658922U,
  0x3647d34138d0f812U, 0xb9081e1938e0d4dbU, 0xb8bc04abb9787355U, 0xb980dbe638002d03U,
  0xb9203680b976c2d1U, 0x39647ebfb7cbc199U, 0xb90298383876142dU, 0x38dc4d4537f082feU,
  0xb94260fc3667e60eU, 0xb934c60ab841cce9U, 0xb889855fb9404f98U, 0xb9518729382c58a8U,
  0x39325bdab8165016U, 0x3951e5db3835a29fU, 0xb90a98c138f0fed9U, 0xb7d99ad437b2bd0fU,
  0x3dfdc14c3e13f8f5U, 0x3e58723c3db5b4edU, 0x3dd253383e461b89U, 0x3dadac123dcf3107U,
  0xbe66e16abe7c9e88U, 0xbe8ddd78be08f47cU, 0xbe50da46be0da6cfU, 0xbe14ef97be8a9c6aU,
  0x3c5b12883c3098d6U, 0x3d3eec3b3dfe9d2fU, 0x3e07b22abe09ccacU, 0x3dab22a03e7279d6U,
  0x3e3a29573e596323U, 0xbd408fe53e23d759U, 0xbdc1a8843ceb1983U, 0x3e732ad23e213befU,
  0xbb2bec023e81b66bU, 0x3d1fce98be055a07U, 0x3e7f67eb3e38e7c4U, 0x3e7576723e114e08U,
  0xbcfaea0cbde6b8e5U, 0x3dab8d3bbd58d9feU, 0xbc8ca22e3de741c7U, 0xbe597df73d37f55cU,
  0xbd1999abbd73e5eeU, 0x3e2d10e0bd915fa8U, 0xbdb5f96cbd40e083U, 0x3e7de09b3d0859a3U,
  0x3ca94eafbda2877dU, 0x3d4d8b28bd049e53U, 0x3cc998d43d9bcde3U, 0xbd74c6d2bd480858U,
  0xbe10641cbe1c39f2U, 0x3c86f500bdbaa31eU, 0x3e0a0f0c3c505b10U, 0x3df4d4533df2e2dbU,
  0xbe41b61dbc0fb5a4U, 0xbe769e26be79f40aU, 0xbdb6e261be1af48cU, 0xbd82d77bbda8da0fU,
  0xbd2e5331bd432353U, 0xbd8f5587bda795b2U, 0xbba13172be2b5e09U, 0x3e4f8307be24e302U,
  0x3e1d5494bdd6c348U, 0xbd332349bd78d51cU, 0x3d7141563d3a8e00U, 0x3e0639283e67fb38U,
  0x3e06fb01bcab5271U, 0xbd3e5f10bdc60bbaU, 0xbd8fdf243d791cbbU, 0x3dbd0a7c3c44729bU,
  0xbcfc6facbe1a8d3fU, 0xbce2e6fbbe0cf9daU, 0xbe3c0a88be774e4aU, 0xbdc652e9be286de4U,
  0xbeaeea8bbec93943U, 0xbe9d1887be985101U, 0xbe88a9ddbe55ecd7U, 0xbe51fbffbe85abf9U,
  0xbb567804bd9799abU, 0xbd9cc24cbe66fc82U, 0xbe65e5c23e73451bU, 0xbda08866be641af2U,
  0x3e54afe43ea61459U, 0x3cebd3cb3e1eae9aU, 0x3c98316bbdac3f0cU, 0x3ea1f04e3e7d758eU,
  0xbe727bc9bb5f3096U, 0x3c2fc0ccbd494760U, 0xbe3b315ebeb80b06U, 0x3cb157dbbe1f8bcbU,
  0x3da12ccd3e01d89fU, 0x3dfb130e3ca5ba86U, 0x3e8de6293e257598U, 0x3e52a2673e9e4b26U,
  0x3d094db63e3cf781U, 0xbe70f7e83d9f62afU, 0xbe34a56dbe769e0dU, 0x3e4e959bbd720017U,
  0xbd43248f3dd05ddaU, 0xbd99df51bd565c17U, 0xbdc539b4bba8649aU, 0x3ce9a219bd3ac753U,
  0x3e3226f63e29cbc3U, 0x3c3720fd3db6b035U, 0x3e00a750bc15973bU, 0x3e3d167e3ddb4bb0U,
  0x3e4f9dd83e66f720U, 0x3d8c94e93d85efa3U, 0x3e77e9883dd76d1cU, 0x3e43c5bc3e8818a7U,
  0x3e091b6c3d1c616fU, 0x3d14a4b13d11344bU, 0x3e20536e3dc38f45U, 0x3db8d0ca3e5727edU,
  0xbe8ec3fcbdc5a4dcU, 0xbe92796dbe4c59c7U, 0xbe53738bbe2c6781U, 0xbe2ae4dabd7067bcU,
  0xbe15a13ebe23a1f7U, 0x3d3937ddbd34e269U, 0xbe7929a3beae874dU, 0xbe87231cbe2fd3e9U,
  0x3dba11eb3e346e24U, 0x3cce51693e4d45e9U, 0x3de94585be3d49c8U, 0xbd89d9ae3d2a00c3U,
  0x3e1012a53d555bb2U, 0x3e2cff343e3263a6U, 0x3de14a083c94b87cU, 0xbd8cc6703e0c3857U,
  0xbb2b84e4be88d3ccU, 0xbe3cb741be21d6a9U, 0xbd5c82d3be8a6023U, 0xbe20d19fbc75bc5bU,
  0xbdd6ea19bd19e687U, 0xbe0631b7be8be584U, 0x3de2b309bd857824U, 0x3d9356123e8534a4U,
  0x3e0b91ec3e01f7dcU, 0xbec77d94be8e5b45U, 0xbe474b9bbe7b817bU, 0x3c749409bdc87075U,
  0xbec0c413bea6a401U, 0xbf06187bbea85d5bU, 0xbea8f2c5bea0c4dcU, 0xbdd49405befcfe89U,
  0x3caaca2cbe74faf8U, 0x3dbd95d43e06b4edU, 0x3dc5ad0cbe171862U, 0x3e8a2d2f3ea4d784U,
  0x3e0163333e316cccU, 0xbe551e21bdd2654eU, 0xbcd284a5bd8e9c18U, 0x3e7d06c3bde5fe76U,
  0xbe4a45ed3e96a907U, 0x3e7499fa3dee1b01U, 0x3e18525c3e1a3d56U, 0x3dd8716a3c6b932eU,
  0xbe874bff3e38cc01U, 0xbe1a65bfbea498b0U, 0xbe88b1fabe1df9aaU, 0xbe8456a4be5f0cc8U,
  0x3e0634fa3ecf620cU, 0x3e50e4123d1d1040U, 0x3e87db7b3dca5326U, 0xbe1a71993c6d0756U,
  0x3e81fe353e4746b9U, 0x3e7ad6693e4737acU, 0x3e790b0e3e78a330U, 0x3e3254203e81f5c5U,
  0x3d3e8ad03e981ba4U, 0x3e518c7b3d8b425aU, 0x3e31fa3c3e7573b3U, 0x3dcda4453c7cd23cU,
  0xbe8e731cbe13f30cU, 0x3d84feb7beadf51cU, 0xbeafc901bb107143U, 0xbed67560bef63e66U,
  0x3d46438dbda8bd6bU, 0x3e25d83cbcc313e6U, 0xbb74fc313dc9c5c3U, 0xbe388b8bbe153f3fU,
  0x3e47cd543e0c85dbU, 0x3e7793483e29e58cU, 0x3c2bb1003dbb1367U, 0x3d07920f3cf79dc0U,
  0x3d5a283cbe4ab144U, 0xbc2d659dbd1d8643U, 0x3dd5af1c3d575b7cU, 0x3e0a59ea3d9dd432U,
  0xbcae34dbbe353331U, 0xbdc5bb65bba93f43U, 0xbe3bd272be445e60U, 0xbcc73c2ebdbd540aU,
  0x3d63d1c7ba3a007dU, 0x3c924402bcd678b5U, 0x399010623df9bd21U, 0x3e02dd5b3dbb7138U,
  0xbdbd7751be33c213U, 0x3e8609123e6c4c70U, 0x3e95f48a3d1515b4U, 0x3e9ed6893e51331cU,
  0xbddd14ca3d9b4f20U, 0x3e4672c63e59e38fU, 0x3d32162a3d97b468U, 0xbd8cae88bd0e8164U,
  0x3d5d0d76bd9e7dc2U, 0x3debeb033d36e581U, 0x3ddb9cc9bdee3b89U, 0xbea4988e3bd8ae06U,
  0xbd4b79cbbea8d678U, 0x3d933dadbcbc5005U, 0x3d968a25bd6c3205U, 0xbe90a2ca3d99ba85U,
  0xbd0f2d11bc0957d0U, 0x3e353a64bd038264U, 0x3dd535503e0210e7U, 0x3e25d2b93d926c9bU,
  0xbd04deb5bebb6ce0U, 0xbe39ec4dbea98919U, 0xbe6619b73ac7963aU, 0xbea6730d3c70ce3eU,
  0xbded71ac3daec1b9U, 0xbec2eb3fbeaf1327U, 0xbe6abccdbe5cde65U, 0xbe8012b3bdffd969U,
  0x3c43dab0bdce8af9U, 0xbe2e6a30be1706afU, 0x3dfa58e5bdc9995bU, 0x3dd18644bbb1950eU,
  0xbe586d553d348cd7U, 0x3d94d2febe0d0cf7U, 0x3e1aef8b3b3d100dU, 0x3cfb03833d4c200dU,
  0x3dd844e93d47bbcfU, 0x3bacb0fbbdca4ee3U, 0xbdfba89dbcafdbd1U, 0x3e0525413d1e1571U,
  0x3e1f8e0bbd69b9ddU, 0x3e00a1f23d5e07f0U, 0x3c69eb2cbd1a837eU, 0x3daee3693d1deb3cU,
  0xb98dc759b8b966d7U, 0xb9460a93b9156950U, 0xb99d3c5db91cdefeU, 0x384e5573b9669e6bU,
  0xba2305b2b9a19c1cU, 0xb9c11402b9e082acU, 0xb9b3a33dba2a7566U, 0xba15fb64ba22ad05U,
  0xb99ad077b9dc295fU, 0xb9320bbbb9f01816U, 0xba1570fdb97af8b2U, 0xb9154db0b9a7c406U,
  0xb9fdd515b9015ed2U, 0xb942c48cb9a8ae91U, 0xb9a8ac40b9ad6a9eU, 0xba01f9d4b80338c3U,
  0x37807d9139054b75U, 0xb94ab466382fae10U, 0xb9a4dab9b9998870U, 0xb8259be5b9420bf9U,
  0xba19279ab95d9756U, 0xb99f8d5bb8a84ac0U, 0xb988eaebba048b6dU, 0xba100e1eb98d9a63U,
  0xb9c32d31388c3e90U, 0xb9f04583b998cea1U, 0xb92b0146b9828074U, 0xba42112bb98bb53cU,
  0xb9a56f01b91d86caU, 0xb9fe101fba07306bU, 0xb869b4afba35564cU, 0xba02c90fb9b5017aU,
  0x393bd3fb385989c7U, 0xb90b93dcb901596bU, 0x3965e2c3b688ac06U, 0xb95ae6af39b4b95eU,
  0x393c79dab81a7cdfU, 0xb93f4b6ab930e36cU, 0xb9f8bcf33920120bU, 0xb92e054db965f771U,
  0xb8d7dc38392f000dU, 0xb9083593b991d0f7U, 0xb8c8c411393f9d2dU, 0xb9d3588ab98f0bd0U,
  0x38a9cae7b946ecf1U, 0xb937b8f3b901a327U, 0x3885245bba0967f9U, 0xb9982934b99ca83bU,
  0xb90931fa3958194fU, 0xb9804715b9937157U, 0xba020981b9230530U, 0xb9aff019b7f37b0dU,
  0xb936dafb38fc9328U, 0xba024f9fb966f8f1U, 0xb9513930b923d1baU, 0xb9cc9e63b9144455U,
  0xb8b992b5b93a6823U, 0xb987a60eb77be2e8U, 0xb93b5e13b88c5f30U, 0x38a877783935e055U,
  0x3890f1ac38914ba3U, 0xb8bf65e637fe9c36U, 0xb9535fc039927728U, 0x39a82b9437d144c0U,
  0xb986885b3940aa40U, 0xb8909fa93781f279U, 0xb84ee37a3960d527U, 0xb84bb6f638d5a635U,
  0xb9c3f7c0b99d3b02U, 0xb9821cd9b9a1dc96U, 0xb904eb7037f74520U, 0x3911c8af3940c5aaU,
  0xb90017f6b8c232e7U, 0xb8a68341b97978dfU, 0xb9c7c340b88fdb0bU, 0x390be1f33984943cU,
  0x390e009bb9ea1793U, 0xb8eea69937608873U, 0xb957b5e9b85038bfU, 0x39041738b997445fU,
  0xb91f7669ba01f9caU, 0xb821c818b9ffde28U, 0xb6ce90deb9d53711U, 0xb99a8adfb940c96dU,
  0xb8237dd9b8f18075U, 0xb90013b6b9efec2cU, 0xba118903b9f9add5U, 0xb9f530eab8b99c9fU,
  0xb84d2fd3b9a553b4U, 0xb948b8ceb946fe51U, 0xb904cfd4b9c3a89eU, 0xb998ddbfb9909f19U,
  0xb963c0bbb9f8b063U, 0xb903c16c37dc709bU, 0xb9ca9becb8a77cd9U, 0xb98dea8ab9344cc1U,
  0xb8b9af45b8a1bd1eU, 0xb99d07beb9a5d99aU, 0xb8fb7310b80a1facU, 0xba1094b9b9823344U,
  0x3936cc953934e3d1U, 0xb9c3b62db9fd3446U, 0x387acbf7b9049cfeU, 0xb929902db951f1daU,
  0xb9453a5db8164bbaU, 0xb9a49eb8b9dd94ccU, 0xba1388e1b96f9dfbU, 0xb9886011b9c50dd3U,
  0x395a97cbb7c00774U, 0xb99e590eb945206eU, 0xb97d5786b7b1b57eU, 0xb7a45569378c2876U,
  0xb9eba836b836b685U, 0xb9e51a59b9dc5072U, 0xb998cdd9b9b8524fU, 0xb97e3524b9910174U,
  0xb7ec2d39b9af86e5U, 0xb6d7eb18b91d0586U, 0xb9d544deb9ba19ccU, 0xb9b6ea1cb979f7feU,
  0xb965147b3873fac7U, 0xb9d9c3a93906deefU, 0x39548d3138068003U, 0x387caa4cb9fc5776U,
  0x3876c4a83884ffbfU, 0xb8ebacb1b939f22eU, 0x393bca7ab8a89eaaU, 0xb9b73125b98be836U,
  0x3827a89f398752c2U, 0xb9b3632bb994eca2U, 0xb9978e93388a4b6aU, 0xb98353cab9ba8a92U,
  0xb81dfa0b39873a69U, 0xb9bcd68cb9d55e8dU, 0xb8e79189b9d5a412U, 0x38c3302db98b1e0eU,
  0xb97646ee3922fd3dU, 0xb94b994bb883dd02U, 0xb97dc5d7b9bdb0dcU, 0xb958616bb9d418f0U,
  0xb9557a92b9c8f25dU, 0xb9cd1038b8ff2948U, 0xb9aba2a4ba107b8bU, 0xb9d7b7afb9ecb241U,
  0xb912be03b99a1117U, 0xb9d30a47b9958e48U, 0xb71f0167b9a99d2fU, 0xb92064d9b9fbfde0U,
  0x37b598a43936649cU, 0xb9a14cd238a64cfdU, 0xb8e17ca9b8b749bdU, 0xb9062309b9009a71U,
  0x3922de63394fbbe9U, 0xb99a769f3784d17aU, 0xb8966351b918edd7U, 0xb9926b4cb992879dU,
  0x3919d93439179526U, 0xb9afb2f5b9337c89U, 0xb4a686e1b8815d6dU, 0xb8c0934fb94bf536U,
  0x391d355b3950dc9bU, 0x35aa928cb9fdedbfU, 0x38f26e0bb9bd2bc8U, 0xb99e30e5b93972f4U,
  0x38b19e6639a83981U, 0xb9ab057a38d81042U, 0xb93f711b37a8b4efU, 0xb8ed25eab92cbd83U,
  0xb9b650f9b9c1d489U, 0x37eff81738a4a687U, 0xb9adbede38c7418fU, 0xb9b341dfb9d96961U,
  0xb8d091b9b991f70cU, 0xb85ce030b93721caU, 0xb9b18a07393b785fU, 0xb9a31eb5b90f04a6U,
  0xb8b40b76b78d00b9U, 0xb9899eafb9dc5b77U, 0xb978967cb72fbfd5U, 0x39203e4fb959d39dU,
  0x3860ecf93861c6c8U, 0x3902c079b9d47303U, 0x39152556b96484f9U, 0xb9c268bbb9ae5724U,
  0xb8dabd6f394e92e2U, 0xb957f397b9296da6U, 0xb9694c363642f5d0U, 0xb9949465b99b7591U,
  0x391c542f3829902dU, 0xb83fef4ab99ed2d5U, 0xba21d48436956921U, 0xb956e828b99b0e86U,
  0x391945d6b924a70fU, 0xb94132bd3884a103U, 0xb9df2634b76aba99U, 0xb9b5643eb8fc4a7eU,
  0x3833c249b96b9d18U, 0xb8e658e7b97bf6d1U, 0xb8a003473956dc2dU, 0x397d4fa6390c8642U,
  0x38203c3e378c0a55U, 0xb8a29f5bb9478edeU, 0xb8863f4837384d89U, 0x3846810c396cc6aeU,
  0x38ae9c5438cd75e5U, 0x38d51487b93944b6U, 0x396215a937ac747bU, 0xb8e4d33bb8c254e8U,
  0x38b11a76b94e82beU, 0x38cd2a72b95bd687U, 0x381f878338ff338eU, 0x3961aa2ab96bd1f2U,
  0xb87cb4de38a5659fU, 0x3786710638ad88d2U, 0x393f2659b8f6c5e4U, 0xb9130a8fb91bfff4U,
  0xb924cc1c39169641U, 0x3947bf4cb9524545U, 0xb88fdb0fb607b1edU, 0x394a9dee39231f3dU,
  0xb91daa9439020a84U, 0x38c5a0acb9646fbbU, 0xb96441b3392ddb34U, 0xb96edc62393d909bU,
  0x38c0808fb9205ad8U, 0xb9a869a6b9afe860U, 0xb835d533b8d04686U, 0xb8d17e85ba153089U,
  0x38dca4abb97c676eU, 0x3a1e37f3b9ad6c60U, 0x39b7b52bb792777dU, 0x3866baae38b2ca5eU,
  0xb98d523639471f71U, 0xb96630c6b94a8a97U, 0x38addce8b9c1bfcfU, 0xb9166fecba471bd4U,
  0xb9ffbb2eb93f5a16U, 0xb94c639b3882bee7U, 0xba312cefba25a256U, 0xba13ba03ba0111a4U,
  0xba3a1474b924a6d5U, 0xb99d31e03900e89eU, 0xb9e99656b9666194U, 0x38b35ba5b94311adU,
  0x38370065b8d67356U, 0xb9bd55ff39b6580dU, 0xb9ae5c58ba10d3bfU, 0xb9589f21b95118d7U,
  0xb9d2ad59b88e0725U, 0x38b25ac7b9c3d208U, 0xb94305adb9cbeb94U, 0xb9cc0715b8d6570aU,
  0xb9502e0bba00e8d2U, 0xb9b64134b9c7bc71U, 0xb99bb4acb9f06b15U, 0xb9f4e986b9cb312cU,
  0xb96c6a91381542f9U, 0xb9a1ac16b9a681faU, 0xb9f6d9ecb86cb021U, 0xb95afb92b99ff568U,
  0x3927575d3958ac4dU, 0xb9504e8db92f0199U, 0x38a049c5b83edee6U, 0xb72840b338f82b84U,
  0xb789aa71380ed26bU, 0xb80b1d29b907d1fdU, 0x3910b1abb9b87be7U, 0xb9afaffeb7e08fc6U,
  0xb9192ebc393c5bdcU, 0xb9a9c5b4b9c66369U, 0xb8e02bd6b901ac5eU, 0xb9107abfb98559dbU,
  0xb88e227cb8f4e548U, 0xb8b4348aba07ee09U, 0xb98f583bb8922508U, 0xb94de520b9905254U,
  0x39366575395887e9U, 0x382420e738c3bbfcU, 0xb91691c7b7fd0172U, 0xb9685e253958dfe3U,
  0xb937558cb9fcb336U, 0xb92e27f6b98005c9U, 0xb9d07a6fb9846b46U, 0xba1e3be6ba0da15aU,
  0x385141d2392dd7efU, 0xb91637b3393ba5c2U, 0xb81596fc3891d838U, 0x390382fc38f41063U,
  0x396145d3b8e5da21U, 0xb99f1553b9bf3441U, 0xb401c72f38c69544U, 0xb98ce379b9a7a6edU,
  0xb93c552c390be878U, 0x3865b58fb907fc12U, 0xb9547522b8c41800U, 0xb988b95eb9bcfa40U,
  0x3923dbd0b9a45aadU, 0xb9387dfeb976c85dU, 0x38d5af37b96678f4U, 0xba03186cb8942080U,
  0x38cb7677b8097bf3U, 0x38181cceb874d44dU, 0x395f87fdb96c4898U, 0xb7883f3eb950b9ccU,
  0xb94bb01eb89d1cf9U, 0xb9e5f768b93964b3U, 0xb92f6ff638ee11c4U, 0xb915c69db91f40a7U,
  0xb7b03d3f3895397fU, 0x397e3ad9b8f5f583U, 0x392beb30392c7559U, 0xb8c285ca389598d1U,
  0xb9cf9ee0b95b1b12U, 0xb9bc53dbba0ee5dbU, 0xb910ebd6b8d0e319U, 0x3855d2ca39be412fU,
  0xb948dbb7b9255893U, 0x36c9056db908ceecU, 0xb9a5f225b8410598U, 0xb82fe61bb98bfd84U,
  0x377405c3b98c1d61U, 0xb98f05fbb99aac69U, 0xb962f4bb396174e9U, 0x371612e0398c82d8U,
  0xb9894fa7355f0346U, 0xb9f769d4b98a6afeU, 0xb9b5096bb9c37d6fU, 0xb9817511b829b8bfU,
  0xba036c48b8c8a084U, 0xb9d436c4b8debf8cU, 0xb9a29a28b9d97994U, 0xb820d494b94aacd1U,
  0xb939068bb9baf006U, 0xb999c321ba02f1a6U, 0xb9a1a008ba0319caU, 0xb9eac02ab93511beU,
  0xb966dc01b9a63c44U, 0xba006bf6b9754b5bU, 0xb9bfb165b9a1b410U, 0xb9da0d4ab91f66faU,
  0xb993cfedb91a2d9dU, 0xb98bea1f389c979aU, 0x387e948cb9961fc6U, 0xb9004ea136e04e25U,
  0x38095ffd3778854bU, 0xb98e6dc3b95b30dbU, 0x38c3cae838a2fb4fU, 0x38d76621b9b2c058U,
  0xb9ae695639ab0504U, 0xb97586d3b9fe94cfU, 0xb97c04a8b9140f73U, 0xba06ad00b9010b50U,
  0xb952b4d7382ea420U, 0xb8d463edba0c533eU, 0xb9705ed13812c4bdU, 0xb974d735b9ccdf2cU,
  0xb90e8bf03985a759U, 0x379e6b83b9aaee51U, 0xb9636fd4385f9150U, 0xb9a985a2b9ec05b9U,
  0x383c7565399ae2e2U, 0x390136553767424aU, 0x39243df5383684faU, 0xb9a2c423b8aada5cU,
  0x39ea8972399ccdceU, 0x39cdc8fd379f54deU, 0xb800061239eb6658U, 0x399f4c9f3966ec20U,
  0xb9bcebb8b9824d84U, 0xba164231ba0ba19bU, 0xba321478ba262bddU, 0x39c01d31b92aa924U,
  0xba0f0604b946cd19U, 0xb90f0777b9b2559bU, 0xb954927739096df4U, 0xb9e3fd41b8f1f6f8U,
  0xb90f8986b8e074fcU, 0x386616f7392c5d91U, 0x39b51268371b27adU, 0x39878d0638c4697dU,
  0xb9776160b69332aeU, 0xb82de0bcb9835071U, 0xb7fc9f10b92718f9U, 0x38185e6eb6a1d8c2U,
  0xb9f7b92bb9662745U, 0xb96fb31cb9838e67U, 0xb93fd828ba1e6d6dU, 0xb93b699bb8b6b01aU,
  0xba2a45a338ebd558U, 0x36b84fa0b93f885aU, 0xb8c1e677b9de84f1U, 0xb9f99775b8e9b653U,
  0xb94b409db8121e2bU, 0xb96ae98e38b528eaU, 0xb8fa9e86375529dbU, 0x38cd14ee385523b0U,
  0xb90108f3b97efe5bU, 0x398025d6b8885d28U, 0xb95f9cbbb921ec12U, 0xb95c2e47b7db3b6aU,
  0xb8845bbe384a9fb4U, 0xb94f1cce3908545cU, 0xb917402ab92a8916U, 0xb97a67af39100c06U,
  0xb8c867cc39242e2dU, 0xb8f68d2cb88727d4U, 0xb8fe05e4b7bc3c08U, 0x389e209637844560U,
  0xb8abf5bbb8d4fda5U, 0xb796c053b89d06a6U, 0x39550460b894774aU, 0x393df45f3975b281U,
  0xb95766b538952f11U, 0xb8991a0638e59c22U, 0xb94b0c6938be2430U, 0x375c1ce0b92318e1U,
  0xb93a3504b927e943U, 0xb9166694392c5424U, 0x396870e4b96dca2cU, 0xb7c96110b91313ccU,
  0xb77ed014b98fb7faU, 0x392c9cb0b92671c1U, 0xb98151aab989d879U, 0xb88e516db9115314U,
  0x39190f0139ad48d6U, 0xb8abc009383db614U, 0xb75ae92738804d94U, 0x39c01176390a96b8U,
  0xb98a253a39073dcfU, 0xb8a61646b89634cdU, 0xb955279eb91ff6aeU, 0xb9469ccbb867ecb0U,
  0xb9880c34b988aaf4U, 0xb9b0488fb9229e90U, 0xb8c4eb52394a21c3U, 0xb84a5fb7b8b3b194U,
  0xb993dc8db9f32b28U, 0xb7f73facb8a6977cU, 0xb986c9e0b8496b62U, 0xb8a34d8538fa0c78U,
  0xb96454b5b9e47f08U, 0xb956d18eb99e70a5U, 0xb88e579ab9f11db5U, 0x392c5ca5b7f11996U,
  0xba1525f9b95eda84U, 0xb907ca2bb8f2f917U, 0xb9de5b4fba12b296U, 0xb9daa45ab9818c0aU,
  0x37d7e20fb9a4767dU, 0xb9512e5ab73e369fU, 0xb96bd75f3898813fU, 0xb950261e391a8b00U,
  0x38dd59a0b9127f63U, 0xb945536b3932d694U, 0x391cb3d9391e0ec5U, 0xb8d13d1b3706460eU,
  0xb925398cb9689283U, 0xb981b0e6b766c7bbU, 0xb8828fa6b9a5cabbU, 0x38827c52b99ac7c5U,
  0x39357acdb637e9bdU, 0xb8d811a5b928a5ebU, 0xb99d2733b9592bf8U, 0x392fc0d2b995c134U,
  0xb850423eb97acbacU, 0xb9537708b8deef59U, 0x3893c074b926eaffU, 0xb989c3263619b024U,
  0x37e2119db8ed8484U, 0xb953e7e0385f67f1U, 0xb992dc88b8afb7e6U, 0x36edb7ddb99a842aU,
  0xb967f47c393687edU, 0xb966e9d037f7b0e4U, 0xb984aaa6b91e432dU, 0x3880c4fcb9aa57c4U,
  0x375ec2fc38c7ea48U, 0xb55e9216380de73fU, 0xb97e7c9eb9324b60U, 0xb9a2a430b935caa0U,
  0xb7ce95f1b9b988e0U, 0x3934426db87e8a6fU, 0xb8c7790db826604aU, 0xb8fbb1da36dc4720U,
  0xb98c01a6b9302870U, 0xb940c3cbb951e913U, 0xb9a5a383b9d999b2U, 0xb9cc7389b9808e6eU,
  0xb999e8ecb99b70b5U, 0xb9128b37b9c1ab8fU, 0xb8485830b80c7a4aU, 0xb799d4dd3744ecfaU,
  0xb97ea763b74f20feU, 0x390c9b5fb850f5a8U, 0xb8934f19b9933394U, 0xb647398ab83ad62cU,
  0xb913ec02b9904cabU, 0xb9613846b9894a87U, 0xb946b600b8e424ebU, 0xb8d39483b9daa27cU,
  0xb8dcc931b9afda08U, 0xb8141bbcb8913225U, 0xb999a749b97026f5U, 0xb98c4606b91e1988U,
  0xb8ac431ab98296c0U, 0xb8fdb3ac38dea650U, 0xb8524381b8d37329U, 0x387d1d7ab95f501bU,
  0xb8945105b8df64b6U, 0x38c4d457385269d9U, 0xb9a7d1f337ca2638U, 0xb80b7bd4b8b8d90bU,
  0x3960ed1e3803a564U, 0x38e5c35b3803d59cU, 0xb9882981b935ec42U, 0x3823ce5eb90a94f0U,
  0x393a195237e50dcbU, 0x38b21887b81e03b1U, 0xb9114437b9a83ec3U, 0xb9b41f6539274383U,
  0x397a651fb984b497U, 0x396ca058b986b6f8U, 0xb9b45979b99eda9fU, 0x38cd9e89b93e7ca9U,
  0x38c328f1b9604befU, 0x389fb7c138cb5c6cU, 0xb9d72252b9d5c636U, 0x37a0330138c47e8dU,
  0x376a88f8393c8ef3U, 0xb8a3ca8a38e1723aU, 0xb9021068b9d19f07U, 0x3954a529b96d8fd2U,
  0xb9c179a4b9a42c53U, 0x38b73193b9d6d14eU, 0xb90f0949b853ef54U, 0xb883b758374feff2U,
  0xb7f2b2fcb8aae5eeU, 0xb8c22f60b9b09a32U, 0xb8fa41e5b9ac6d51U, 0xb883c8b1b90d9a63U,
  0xb9ad0a5ab9997c9aU, 0xb9909e43b94d63e0U, 0xb984410bb9c3e4beU, 0xb83ddde03381ab0fU,
  0xb9925c0bb8c4a234U, 0x394eba1ab983eeb7U, 0xb8f61bbf379cb1e5U, 0xb9c66789b9e96ca1U,
  0xb99dfd5bb99e5607U, 0xb9114c83b951b4a7U, 0x385b1d8ab8d9ae7fU, 0xb9bbe5a9b7f4146fU,
  0xb808da2c382f331cU, 0xb93b9afbb975b2c6U, 0xb9afd4e0b9d15d1bU, 0xb9a9c12cb9958668U,
  0xb89bc217388f7c8eU, 0xb961b80fb756d4edU, 0xb9803d91b842d7bbU, 0x36bfe9f3b9c5c2a5U,
  0xb9529698b9b17030U, 0xb89c8697b97c3664U, 0xb8a49c4cb8f4adf0U, 0xb91ef96038dd5563U,
  0xb71acc7bb81b25f3U, 0xb9a4e2a4b900e3d2U, 0xb98a36263925f578U, 0xb94eb7bbb8671100U,
  0xb925d73db8bb6865U, 0xb94e1898b97c89aaU, 0xb992bc4cb9593c4dU, 0xb9e17815b9e18f20U,
  0xb9b457afb9835b26U, 0xb8f59e7db9c5c3c6U, 0xb8bc32b7b8fc375cU, 0xb9d1b4e1b84c043eU,
  0xb93435dfb87f5f78U, 0xb93e93acb8c448ceU, 0xb832e77db89dfbc5U, 0xb9ae45b0b98bae2aU,
  0xb9b3ccf8b84ea091U, 0xb942ef13b81bce26U, 0xb9169ac9b8a5fca8U, 0xb9a40e14b8178a3aU,
  0xb999146eb8b9242bU, 0xb9965b91b95223edU, 0xb9a0f1feb99e1f1fU, 0xb94be1cbb9446a6fU,
  0xb9c0e5fc38d0d549U, 0xb9d67bb3b7a6e591U, 0xb958e40c36fc5054U, 0xb7570f35b893a0c8U,
  0xb7a440e9b9ae13aeU, 0xb9f50c44b85ae8d4U, 0xb99b0648b9b49119U, 0xb96196adb97a12f8U,
  0xb9a4a0843740cfb3U, 0xb7f3688fb96ff20aU, 0xb9582965b9121128U, 0xb903985ab99670c2U,
  0xb90e44aeb9198bcaU, 0xb861be57b9615bf9U, 0xb8eeb0d7b9d7646aU, 0xb9a6cef6b8e0703aU,
  0xb90aadf1b81ab85dU, 0xb98bd00eb8dc56d3U, 0xb96d9695b9cc7556U, 0xb968d0f1b9b31f93U,
  0xb81cadd7b8b41b30U, 0xb93b6e81b93fd8dcU, 0xb9e38d5db935ab57U, 0xb9d32028b9899ba0U,
  0xb98d2c97b94982aaU, 0xb9283bceb959f5ddU, 0xb9248203b98cb6d5U, 0xb94b797eb93c003fU,
  0xb80fe35ab8f2fe71U, 0xb930a2bbb936f27fU, 0x394ba44138ae6427U, 0xb9a85bcd36ff4deaU,
  0xb921159ab934ad9aU, 0xb7d1fd41b7aa9574U, 0xb9bac4e6b85e3996U, 0xb96380f9b94fed2aU,
  0xb9d54e03b99aba43U, 0x38371dcab99bb747U, 0xb973e6cfb8ac57b0U, 0xb88a70abb9fc45a8U,
  0xb881c4f5b9c35c93U, 0xb7897b1ab8daf273U, 0xb950ed3cb8d747feU, 0xb9fa9da3b9c84888U,
  0xb58b5fe6b9a60e2fU, 0xb8e97a3bb9477d18U, 0xb9befadab991aad0U, 0xb809591fb93ae1a2U,
  0xb9210d67b9e27ad7U, 0x367b19f4b970d31aU, 0xb7bed134b8f69836U, 0xb90dce34b936c515U,
  0x370a76cdb8a5a01bU, 0x389a293bb9187c74U, 0xb840dceab96a43a4U, 0xb919ee6cb8a67a6eU,
  0xb9123977b8a05176U, 0xb9595d0eb60c3e76U, 0xb818a326b9726cadU, 0xb68e05e13944f715U,
  0xb923c1c3380b03a8U, 0xb938a04cb97b9bf0U, 0x3947a5b6b87f2426U, 0xb88ee235393438d4U,
  0xb8a2a43e398020dfU, 0xb802d57d38de5e18U, 0x37c5b93d3831f814U, 0xb9709a4bb9514ffdU,
  0x38604865379f285bU, 0xb894d6dcb9440bb3U, 0xb8b57e4039139aecU, 0x380ce6e8b94c2214U,
  0xb8561651b8814c04U, 0xb7af7d0bb7b3d01dU, 0xb9333d47b8b4f0beU, 0xb953965ab92628a1U,
  0xb82c5c30386471b6U, 0x3870399338e3260fU, 0x37e2a1afb904c4feU, 0x38622c35388872efU,
  0xb89800deb7c9a9b3U, 0x394046d4b955c4eaU, 0xb96134843941ca9dU, 0x388a01113943f150U,
  0xb96550f43830465eU, 0x37c69c0a393d3147U, 0x38606938b8857252U, 0xb9832d96b9513d82U,
  0xb9a4cb10b9929b17U, 0x38e34884b784fb9eU, 0xb8008d0fb8f2bcaeU, 0xb991738538dec624U,
  0xb620a350b8e3d93fU, 0xb7290c3938b4f22cU, 0xb8ab959bb945151aU, 0xb94a76d9b9a335f9U,
  0xb96264a4b83a2aeaU, 0x37ef73403855569fU, 0x38077b4b3910d4b6U, 0xb9275de9b88a9a24U,
  0xb996f218b8d1e269U, 0x390bb6503881c1a3U, 0x38a63df8b5cb4939U, 0xb8855f38b89b7cd8U,
  0xb8a157f538da46feU, 0x384501c9b7de36acU, 0xb939072bb939614eU, 0xb85676e03815e5abU,
  0xb8ffdaecb8ab8382U, 0x3909ea7537c8ec7eU, 0xb927528d38dcbe54U, 0xb9583f10b943079eU,
  0xb99df86db91b3777U, 0xb9362feeb8b1ca60U, 0x381c23dab97eed87U, 0xb86f7742b8dd4189U,
  0xb8aa3493b979d6a8U, 0xb9587731b8b40991U, 0xb9a0484db920958cU, 0xb983320bb89f05c8U,
  0xb8335293380d0ebbU, 0xba0049a3b9c1e042U, 0xb9bba74cb99d0999U, 0xb91fee90b8b2a894U,
  0xb943e9e6b8f0793dU, 0xb96cf125b91993c4U, 0xb99d4503b99e4664U, 0xb95263c9b9646e57U,
  0xb8d7f541b9836662U, 0xb985de6cb998e068U, 0xb932ed52b9674371U, 0xb9d506ceb99a7c3aU,
  0xb95113a0b951adc7U, 0xb967774737cb1221U, 0xb966519db98c0f59U, 0xb8e0ec8ab94fdcd2U,
  0xb840e18fb84a31ffU, 0xb8ec7726b9393946U, 0xb9aed854b92a36c3U, 0xb915a0d737d31587U,
  0xb8fbb714b839ff10U, 0xb8803aecb9ea6b9dU, 0x38ea1e85b93ddbb8U, 0xb9a67927b9ce787eU,
  0xb9eb89b8b9ca6339U, 0x38914a44b90bd852U, 0xb9b9f782b84a02a9U, 0xb9cafa04b95c9a79U,
  0xb869233db610b289U, 0x3927feeab83ab056U, 0xb949112cb7c44d3dU, 0xb9c46089b9e87bf5U,
  0xb9764087b8930b48U, 0xb95a4606b6bee974U, 0x38a07aee3853e445U, 0xb86b6578b9bd1c55U,
  0xb9c6a3c9b97ec8e7U, 0xb87d5eba36cf78d7U, 0xb987e697b9c86e97U, 0xb980b474b933eb25U,
  0xb97c70d8b789a13cU, 0xb9a28bdcb84e0b55U, 0xb9276fe7b9e03159U, 0xb910a9dcb9f04e68U,
  0xb9c10637b8efc4a8U, 0x3745e5d1b9d176b7U, 0xb8fe79d5b98b5db1U, 0xb75426b8b9c7ed36U,
  0x389038c5b894ae18U, 0xb8f2663ab944f16dU, 0xb9cac3da38df57ddU, 0xb99cd2473896499aU,
  0xb8958661b94d3542U, 0x3837847936afe12aU, 0xb9528aa9b699ecb9U, 0x391368edb92cdc36U,
  0xb96faa97b8bff5c3U, 0x38ac1fbb390a7537U, 0x38433c5ab92d35a8U, 0xb96c41be392b5aa0U,
  0xb93c1444b8313ebcU, 0x3869de0fb9925a73U, 0xb96db35d3917a4a2U, 0xb9480721b717b6daU,
  0xb8c06295b9150044U, 0xb949f41db843e46dU, 0xb8ee33683882acc8U, 0x38ee688bb96ab08cU,
  0xb8f4d05eb841a48dU, 0xb857e1b938c675d2U, 0xb8b73b96b9005d46U, 0xb96e6021b8890f00U,
  0x38a127f8b8f6146aU, 0x374cfd55b90c3f76U, 0xb85d5bf2b8058028U, 0xb8ccb37bb985d6cfU,
  0xb98a6295b96caca5U, 0x37354045b867d2caU, 0xb8fb7db1b936097dU, 0x38e0dc7eb9505a2aU,
  0xb913c1c0b8c21476U, 0x373089f0b69d473aU, 0xb89fa5adb9897447U, 0xb97d2f94b982726dU,
  0xb9d2a1f9b976a78cU, 0x396bc32c37fc6ba6U, 0xb8765ca0b92327a5U, 0xb92e2b70b8f34a2dU,
  0xb9c4f695b92611e4U, 0xb92f0073b88856f8U, 0xb7e71b1135eea2ebU, 0xb9e86071b98da836U,
  0xb9db8264b9935e41U, 0x391a3f9db9d66a8fU, 0xb9dac44cb9b9d26bU, 0xb91648c4b8b29386U,
  0xb9ba7393b963e0e9U, 0x392ecf62b9472368U, 0xb9ea28e0b70bb249U, 0xb89f6743b8d9b170U,
  0xb9b20cdbb9db2557U, 0x389b210ab93c0a27U, 0x37852dc0b9055e47U, 0xb96f0808b9217e7eU,
  0xb9e6a232b90c9ccaU, 0xb887f089b70e6fe9U, 0xb9915769b963a973U, 0xb9cc056c3691b1acU,
  0xb9a5cdfdb91a35e2U, 0x394ced3fb971d46fU, 0xb98ac8d738cba1c8U, 0xb901f575b9628ec8U,
  0xb8bdd08d37ebb968U, 0xb9198f08b8d03693U, 0xb96e8486b9a37e72U, 0xb9744dadb980a6d0U,
  0xb62b05503638a939U, 0x381682c637e17c90U, 0x36874af8b9627f22U, 0xb8b1743e39149726U,
  0xb996c0a6391ba5d5U, 0x3943821eb8dfc9abU, 0xb976892eb8c3e81aU, 0x38314af8b8367cadU,
  0xb9d4fe2b37d8876aU, 0x37bab38cb72175ecU, 0x38bcadf3b96f8a1eU, 0xb8b81af4b97a080cU,
  0xb9d981e2b98b19beU, 0xb921b402b92f225bU, 0xb8b218edb95989ddU, 0xb963946fb98bd122U,
  0x39017a22b9983392U, 0x39720ab2b9169b94U, 0xb90726ba3942a950U, 0xb8e6b2afb8b14bb8U,
  0xb916434038eed8c8U, 0xb8d11caab90c2aa2U, 0xb79a3a7839316d13U, 0xb8dfb2ab362b5b10U,
  0xb90a048f393caf4cU, 0x37f3e8bb3940ef21U, 0x3874c206b970e34dU, 0x3941ec15389afb04U,
  0xb916871037255237U, 0x390756d7391dc5b5U, 0xb8be1b7eb7b6853aU, 0x365c706338cd618eU,
  0x37c6d95c392a3f83U, 0x391c1bb7390e41b4U, 0x38d3ad28391cb1cfU, 0xb91ab14a395e5a58U,
  0x38aa93a4b8f324abU, 0xb7950a5136c1a2b7U, 0xb832da9ab905f10fU, 0xb81edeaf38e4e785U,
  0x393656753926b277U, 0x397abca9b9345a04U, 0xb88140ba3866e32eU, 0xb93a8709b86e3dcbU,
  0x38b89b2cb97f299bU, 0x3698992a391bca30U, 0x39058304b96bbf8aU, 0x38f18447b88d303cU,
  0xb956d917b9a6dab4U, 0xb93da45cb895558cU, 0xb93029a4b8ddff7dU, 0xb959bfffb9381706U,
  0x3897e766b980f129U, 0xb9057e9738074226U, 0x3931d26bb6022e77U, 0x38b66755b80f67faU,
  0xb98a71b1b93b0678U, 0xb980b7b7b966fc28U, 0x38743d6db94c5566U, 0xb94a2e2bb96c9496U,
  0xb91cabb4b9a3f9c4U, 0xb9011e6db8a42879U, 0xb93f47e03790bff2U, 0x38a31378b9400528U,
  0x38e2eb20b8be5af8U, 0x386d6513b918efa4U, 0x391707493854c925U, 0xb89992cb38165573U,
  0xb940320b38af338fU, 0xb97c25313954347fU, 0xb76fa61338a760c3U, 0x392debefb84c84f2U,
  0xbe502b43bf09f49cU, 0x3cb14a68bd5cbb14U, 0xbdf16a093ca7b49fU, 0xbc56dbdf3cb4f506U,
  0x3dcccbc83dac0bfeU, 0x3e3e642e3e5112e5U, 0x3e79966a3e492e85U, 0x3dd704363e87cb1eU,
  0x3dbf05bcbe986248U, 0x3e186bfc3e84c635U, 0x3de7f7193acf411eU, 0x3dfea38f3ebc456fU,
  0x3e7dd7f03daa0ee0U, 0x3e87cb163d38efe3U, 0x3dd82147bab92f3dU, 0x3e415a36bbee0217U,
  0xbb0bf57c3c759b0cU, 0x3a262e123e236891U, 0xbe1535a33e6c0d1dU, 0x3edf7c12bcc00a76U,
  0x3da2f7aa3d97025bU, 0xbd4f0b3e3dff87e3U, 0xbe223a7a3e158c55U, 0xbeb532c0bdb4d907U,
  0xbe6578e6be13ad00U, 0xbe4667cdbe7c3322U, 0x3a5e206ebcdf0e9bU, 0x3e09bef2be44cac7U,
  0xbe78670abdc6c82cU, 0xbeb44943beb79359U, 0xbe8cc483be9ee029U, 0xbea3875fbe19ec3bU,
  0x3e26028abd69a059U, 0xbda28e1ebe232e1bU, 0x3c4620973e523fd5U, 0xbea5220bbe265382U,
  0x3c5dc6643d82cfd2U, 0x3df744703d8eedabU, 0xbdb487e03c3dc8bfU, 0x3c64823dbe28e220U,
  0xbd8cb7d7bec43caaU, 0xbde8457dbd2a888eU, 0xbe49cdffbec71146U, 0x3e1d248d3df387b8U,
  0xbd45d13e3d60d3a7U, 0x3d42abc73c8dfc1aU, 0xbd728a7e3e732df8U, 0x3e172517bde0cd5fU,
  0xbe33d7d0bcdb1ffeU, 0xbe97d923be3c8ac8U, 0x3cd0b50abdd2a9ccU, 0x3d489dc73dc681e6U,
  0x3e69bcf83e63dae0U, 0x3cba09233e7f3797U, 0x3e312b033e20d826U, 0xbe3aeb273c93995aU,
  0x3e6dcd9ebf00f52eU, 0x3e39aab43dd0beecU, 0x3e31348c3e89306dU, 0x3eedcb303d33b574U,
  0xbea104fbbf21b6c4U, 0xbeb02cf2bea24663U, 0xbdae13d2be8297c6U, 0xbdffb0063e813387U,
  0x3c764415be13c131U, 0xbd7d8f8abe1ca302U, 0x3bdf3aa33d48a407U, 0x3e32958abcd97b90U,
  0x3ea1ca04bc0f9f7dU, 0xbe8100273e49b084U, 0xbe54ab2cbd09a158U, 0x3dc7e5533dbd070fU,
  0xbd0fb5383e831feeU, 0x3e2530c8bd8c809fU, 0x3ecc32c4bc9f39afU, 0x3f0331563e2d65d6U,
  0xbdb0af8abe2d28d4U, 0xbd81df02bdd55c2dU, 0xbe3621f6bd954f4cU, 0xbde2f8a5be93f83fU,
  0x3bda26793e44ef6cU, 0xbed682dfbdf0b5c1U, 0xbe4a2160be8f73ceU, 0xbf147d5bbe9f7b13U,
  0xbd5c6f98bdb32510U, 0x3c3f5805bd93a69bU, 0xbebcf99fbd189136U, 0xbd56999a3cf561b9U,
  0x3e5feb813d5c0530U, 0x3e8926b73e6c6f8dU, 0x3e65b6c83eac40bdU, 0x3dd59d12bcce3aebU,
  0x3e03c417bd008470U, 0x3ed3c1063eaa5d30U, 0xbdec2c0b3e39afe1U, 0x3dd3f7413b7a2b21U,
  0xbe2205d33dcfbbe1U, 0x3db719933e1fff54U, 0x3ecbf6ff3e45cf2dU, 0x3e2a6a0a3ee99b17U,
  0xbe50cf34bec2e1e8U, 0xbd141f54be79fc1dU, 0xbe023494be25f20fU, 0x3e0a382bbe49b765U,
  0xbd87d4dcbe20a2ecU, 0xbdc07cc13bdabb4fU, 0x3e3874ccbd4b8262U, 0x3d89a16fbd3fd4c2U,
  0x3dfee74a3ee6d324U, 0xbd18a662bd9616f4U, 0x3e2e6bb8be7aa55bU, 0xbded43adbde21696U,
  0xbe62afaabd867c5dU, 0xbe085588bce65e9eU, 0xbd78479ebec7d76aU, 0xbee9ad143cb374afU,
  0xbe87b77c3d2d43b2U, 0xbd939663bc923aa9U, 0xbdad8722bd5c8a18U, 0xbe3a64893cd848c3U,
  0x3c1e644bbe6e30afU, 0x3d1897dcbdfdebdcU, 0xbd5ff881bd2f8b50U, 0xbe951cfebdec57f1U,
  0xbf0617ffbea2942cU, 0xbdf82cd9be9e1182U, 0xbdcdc7f6be6805c6U, 0xbed75504bebf5d3fU,
  0xbe80ae76be36f5b4U, 0xbe45792abe89a612U, 0xbd305d6cbd19b09cU, 0x3e8dd412be002b55U,
  0x3e5b41ba3db7b812U, 0x3db6f95c3e42286bU, 0x3e03f6353e5351aaU, 0x3caf998f3e88dbfbU,
  0x3e31912f3c65c8a4U, 0x3df5abc13c041ec3U, 0x3dcd04003d359a78U, 0xbb4709b33deaf035U,
  0xbf0ab184bdc16b80U, 0xbea9e4e2be9e4946U, 0xbe4f7067bebd897bU, 0xbcd27439bdc342b8U,
  0x3dd905b2bdab84a3U, 0x38cb2052bd1632d7U, 0xbe3dd6bebe847313U, 0xbe6bedfdbd1aa1c7U,
  0xbe1dc45f3d808143U, 0x3e65c0b43d368c7bU, 0xbdaa324ebcfe9b38U, 0x3df7a6a93b25d681U,
  0xbed4f223bee74027U, 0xbe7dbccdbeab70aeU, 0xbe38a098be12e2d2U, 0xbbcd60b5be82cb33U,
  0xbbe901723d857a60U, 0x3e2acdf23e6482cbU, 0x3c02e8de3db79790U, 0xbe6525353c44e82aU,
  0x3d9d40b8bd0012b5U, 0x3df8652c3defd701U, 0x3dbcec4b3e2e1e46U, 0xbd7ca1993beea7d6U,
  0x3e56f3d4bd15ea48U, 0x3dcacc023d8d1b43U, 0x3e01e46b3ca4efd9U, 0x3e89c9803d378eddU,
  0xbd85d5b7be919b31U, 0x3db22e103e021bd7U, 0xbe70d13c3ca985b7U, 0x3e9c3a4b3e889ad6U,
  0x3bebfe763d8a42b4U, 0xbe51a5263db21026U, 0x3e6336653e35e430U, 0xbd84b7443e3fd18bU,
  0x3ea3bacabeca2779U, 0x3e211dc7bd04e4afU, 0xbdd1d65a3e304f83U, 0x3e2217e83ec7ba11U,
  0xbebcd132bea24451U, 0xbe501798bde2d02aU, 0xbe12cd193dffd76dU, 0xbe3a42263cf30d82U,
  0xbecf51b7bdccabdaU, 0xbda112e5be74a9e4U, 0xbe477d64beadd3d8U, 0x3e4c4084bd4d90afU,
  0xbe28daea3e24b76eU, 0x3d904de9be8e081eU, 0xbe3da180be16716bU, 0x3e54b5f03d8e4a20U,
  0x3d5d7cd23d608cd3U, 0xbe191deabdf92364U, 0x3e7546c23dddf24dU, 0xbb8243c3bca9e1aeU,
  0x3a5490a9b92271d5U, 0x3917c58bba11c837U, 0x38c764be39b1b0d0U, 0x3b2f65d13946e460U,
  0xbab8a005b9c6d4afU, 0xba0eb606ba52fe6bU, 0xba8af959ba91d19fU, 0xbb3a8d10b8b76241U,
  0x380fa6523a837340U, 0x3a89eb903ad26bc3U, 0x3a149ea6b9fb07e8U, 0xb96cf68839de01ebU,
  0xba8e7a38b9ffd2f8U, 0x39bbe9e4b89d1b11U, 0x392915e7babcf2cdU, 0x38d878563a68798aU,
  0x3b0212fc3a19795aU, 0x3a865899b9762ea6U, 0x3ad8b7e0b9c1c0e2U, 0x3adc1bd139fca692U,
  0x3a46323e392a6a56U, 0xbade3fccba91326cU, 0xba455db4b9ea58b2U, 0x3b077a23b8414a8dU,
  0x3a43037cba792efdU, 0xba6fb55aba83629aU, 0x3a0997e83aa5d172U, 0xba5013f63a868e27U,
  0xbf01dd49beb540abU, 0xbe4a1b72be61df0bU, 0xbf066114be9517b1U, 0xbe5c4e64bf04a61aU,
  0xbf0422bebe94ffdeU, 0xbe7480b8bea7b742U, 0xbd49da66bd862a5aU, 0xbe47b326bdb4819dU,
  0xbee374d6bebd68ecU, 0xbe1f7e2bbeb09a0aU, 0x3dbeb09abe32efecU, 0xbe21e818bb556f9dU,
  0xbeb96ca3bed7a4f6U, 0xbe3b1f23beb5dc07U, 0xbe0fca16beb10a02U, 0xbbc0d3763bc5f09bU,
  0x3d8150a9bb8b86d4U, 0x3e68290f3ca08464U, 0xbcdb3a8f3d5afdb5U, 0x3df9a5dabeb6a207U,
  0x3eb660e93e1efed9U, 0x3dfa119b3e84bb03U, 0x3eae493d3ecc77c2U, 0x3e4132163d65316aU,
  0x3e3689ad3d31c230U, 0x3dc20d583dc92597U, 0x3d3d0f603e58de87U, 0x3eaa28b33dab82f3U,
  0xbf051edd3d16d1c2U, 0xbec7687ebe74ebc4U, 0xbf052d34bf147b90U, 0xbea4a703bef1f51fU,
  0xbe87d5adbe76dc68U, 0xbe061948be4b13ccU, 0xbe4b6b12be00de27U, 0xbed72f9bbeec4231U,
  0xbd01c0303da8ab0aU, 0x3df122543b5549f9U, 0x3e0697adbe79a4ddU, 0xbc9857bfbe4de056U,
  0xbef41cbabed17089U, 0xbf061a2cbd9afaacU, 0xbe702870beef327dU, 0xbe83c6d4bcb359f6U,
  0x3daf57983d68d631U, 0x3e8d074d3d3265d8U, 0x3d5c2e073e412432U, 0x3c38fc4cbd5abdd8U,
  0xbe48699a3de64d82U, 0xbdc8c56bbd9937b2U, 0x3dbb0415be3aadb8U, 0x3dadeb03bdc57959U,
  0x3d4a6c303e233eb1U, 0xbc9f40fb3c7b3bd6U, 0x3e58816b3e91fdafU, 0x3de2ae0a3e2b7718U,
  0xbd0476bdbe1c1adaU, 0xbd35e992be081cf7U, 0x3dba56c33d83a127U, 0x3d78c0f13d37dc51U,
  0xbdc187d3bd0862c8U, 0x3e8fd7863e53a127U, 0xbe0c27f238847f77U, 0xbde4e465be127ebfU,
  0xbe08ee82be67be08U, 0x3e24f18fbe1af73aU, 0xbe2757d1be6d11ebU, 0xbe3afa3dbe3779f7U,
  0xbec75857bf000499U, 0xbec4ade0be295727U, 0xbe9291a4be964262U, 0xbe316f43be67a48aU,
  0x3c43973bbd74e72dU, 0xbdbdc5013dccdbf3U, 0xbe97148a3cad7422U, 0x3c9d302fbdf9238dU,
  0xbe39a761be19bfdbU, 0xbe983d57beb82d9cU, 0xbe44ce7bbe0c55eeU, 0x3e00e2adbe4f10c8U,
  0x3e60f0ab3e18d849U, 0x3e95338b3ecd74adU, 0x3e1c97ea3e6263d4U, 0x3d04b80f3e705205U,
  0xbd9b7e7bbe0aa737U, 0xbc89b04fbe148257U, 0xbe5a37c7bddc20dbU, 0xbf0291febe8a7055U,
  0x3d7e8ddb3d46e575U, 0x3d77d406bd868dc2U, 0x3d95dc043e90f420U, 0xbd33bb403da35dadU,
  0x3ca44e12bd4180cdU, 0xbe953547bc7672dcU, 0xbe67e460bea42e4bU, 0xbd47a250bdd92cd2U,
  0x3ddd249c3e30f9e1U, 0x3e198838ba667443U, 0x3e85a92c3eb974fdU, 0xbcb532783e2a4c11U,
  0x3d15ac30bbb8e862U, 0xbd36d324be811d1dU, 0x3bb48966be3f552aU, 0x3d191bcf3dc7aaebU,
  0x3e07b5373e8ca9f9U, 0x3dbdf2d73e2f32a1U, 0xbcecc3043d2ad731U, 0xbdd815093dbc9c3cU,
  0x3e023a203c41bbdeU, 0x3e35e74e3e825bdcU, 0x3e4b4525bd2deab3U, 0x3e181fdd3c2985f6U,
  0xbedc65d9bf027915U, 0xbe3dbd3abe98aa15U, 0xbcf5bb923e28a917U, 0xbe100fdfbec388cbU,
  0x3c8da11ebca5e62dU, 0x3e3e4bf83d493ec5U, 0x3c451a433ba7e5f1U, 0xbe2a5e463e0b4513U,
  0x3e1a12453e970309U, 0x3e57adbb3e8300c1U, 0xbb3a9d36bcadc383U, 0xbe70e8303e14ec51U,
  0x3dfe40d7bcf94c2fU, 0x3d7cbe38be78c9c0U, 0x3d0219ccbd88ead0U, 0x3e474ccc3e54553fU,
  0x3e261080be3f3094U, 0xbca29ad03c68a6e1U, 0xbd7ae29ebdde2129U, 0xbe64f3d2bdf9bec4U,
  0x3c05483d3d06f3dcU, 0xbcca15773c1a12d3U, 0xbcf75b6bbe227227U, 0x3e5ac4d6bdb3c8d4U,
  0x3d116cfbbdcad2cbU, 0x3d31a4cd3d0cef95U, 0x3dbf3492bd74df15U, 0x3d9b3ab63df956f6U,
  0xbe148e49be39e302U, 0xbe97b89ebe156661U, 0xbe82cbcfbe4bbd00U, 0xbe4c8d83bdee4545U,
  0xbe77bda5be66ea12U, 0x3d06ae79be3dad0cU, 0xbd9b0d9a3d72fc07U, 0x3ebfce4d3dbb268bU,
  0x3e2ce3d5bec0a240U, 0xbe1d1aedbc0c8be1U, 0xbe03386cbd1e123cU, 0x3e1ccecdbd7ff61eU,
  0xbd384e713e011257U, 0xbd30c13fbdb36531U, 0x3e0f95933ddd13b3U, 0x3d7a099f3d039f91U,
  0x3e376d943e8af304U, 0x3da827783e8b0341U, 0x3d271ef33d29ed85U, 0x3d458a163bfa6d55U,
  0x3f2dce0d3ebccaa4U, 0x3edfab573ef9b7caU, 0x3e566ac33ec7cc96U, 0x3eefcf943ecb896aU,
  0x3e5e419dbe541f52U, 0x3cbace9ebdbe4a83U, 0x3e48ca9e3dd2059cU, 0x3e90801a3e2fffedU,
  0x3e9881d13e94a87dU, 0x3e441ca53eaadd7aU, 0x3e8e23993ea11342U, 0x3d7041d63e9bf232U,
  0xbeb380e53d5c59c7U, 0xbdfeb7ddbd8be98fU, 0xbd96cfddbde42dafU, 0x3e998641bd05e530U,
  0xbeba32aebee6fbaeU, 0xbe60e8c5bf0fca99U, 0xbe5045f1bed3c018U, 0xbeccbe45bde46355U,
  0xbe8835a9bebd9753U, 0xbd80bf9abeab2ac1U, 0xbec3d30cbe65d943U, 0xbedb8d4dbdc84b15U,
  0x3c04b27dbe78a3bdU, 0xbe9388b8bcbb0d8fU, 0xba91a493bdc9aa86U, 0x3ec41c8ebdbce169U,
  0x3f1092453eb1a228U, 0x3ed38d103f05ad79U, 0x3f0045b63f45feb9U, 0x3e5e57343eee7d28U,
  0x3d662b43bdd17e8dU, 0x3ddaa84ebd7b732aU, 0x3cf84e6cbd8ef4d6U, 0xbcbff3ac3d5023d6U,
  0x3e491e7abe176d7cU, 0x3e453b1b3defd0d8U, 0x3dfa9c463e9e3957U, 0x3e8dbf023d052229U,
  0xbebaab74bea50f77U, 0xbe454d02bd3d3dfdU, 0xbe8bf074be9879b3U, 0xbc83f983be4d874fU,
  0xbe07ea05be4c7fd6U, 0xbdae7e5abd77d3e1U, 0xbd85f5943d503547U, 0x3d8e4264be32d9b3U,
  0xbc134d4dbe8a5415U, 0xbe350fa03afcd4b4U, 0x3dbef462be432621U, 0xbd8786f53e858d21U,
  0x3e7bd4f03e22ced7U, 0x3e3939373e86ad77U, 0x3e1b88da3d8ca9cbU, 0x3c93a1863d8767c7U,
  0xbcd4829f3e9dccc1U, 0x3dd3b965bbe073afU, 0x3f0de20c3e5678e2U, 0x3e8a00893e2b35d9U,
  0x3d3060483d1d2fdfU, 0x3d7ce1c33d31d198U, 0xbce7970fbdd127d4U, 0xbd24a5d3bd2676a1U,
  0x3d025184bdb779ceU, 0xbd0428d8bdd21852U, 0x3ce625193cf7317eU, 0xbd9f1523bdf3a354U,
  0xbf213533be3a9f3eU, 0xbe810814bdea995fU, 0xbf0b5868bef91f5aU, 0xbe221b79be81075eU,
  0x3ea23d643e4dc644U, 0x3e667a6cbd0c9d32U, 0x3ec2b9643e7f965bU, 0xbe987fa63e6cd338U,
  0xbee5ffa03d64bc67U, 0x3e6498a1be351154U, 0xbd57cf50bcecd79fU, 0x3eb51adfbdb6ba61U,
  0x3d9464f7bd253709U, 0xbcca1c023e097abaU, 0x3ccc4bd3bd98d4f3U, 0x3d8f99b93d565f38U,
  0xbe7b69a8becb91a9U, 0xbe1584bbbebab686U, 0xbdc8a594bd699ee0U, 0xbcfc78efbce9115dU,
  0xbe59a3bebdfa3399U, 0xbe0677edbe9814d0U, 0xbe217547be6e4c48U, 0xbe2fd7aabe8564e2U,
  0xbd30505abbc29162U, 0xbea9f7b4bec2bce4U, 0xbea98043be80aad8U, 0xbf02f7e2bedf5052U,
  0x3e5687123e9e0d8cU, 0x3e2c27d93e7a2d8eU, 0x3ea6ace43e616d82U, 0x3d239be13e4e4912U,
  0x3e92f1bc3e588d17U, 0x3ea473ba3ea35f3aU, 0xbdc2a56c3dbf274eU, 0xbe30968bbe22a264U,
  0xbdb8ff633d1610bbU, 0x3d7040793dd4ef75U, 0x3dc7eaf63c8be07eU, 0x3e24e2f83d02f005U,
  0x3e1a259dbd6e4363U, 0xbd645c663db87843U, 0x3e1c99483e39052fU, 0x3e46d4fe3c600965U,
  0xbeb165afbe2db455U, 0xbdde165abed46792U, 0xbe17f66639308d24U, 0xbdfa157dbd818223U,
  0x3e05238f3ebf6f6dU, 0x3da4e7b73d848023U, 0xbc97e457bc18051bU, 0x3d9b79e33d933bfaU,
  0x3d9c279d3e6edc61U, 0x3df244543dc07180U, 0x3e3f75063cfa14ecU, 0x3d9542283c7c3140U,
  0xbe87b1d53e17a6e6U, 0xbd69b044bda26805U, 0xbd9a35da3cb475afU, 0xbe1d7553be3430fcU,
  0x3e6639713e3bba16U, 0x3e30ca6a3e1222aaU, 0x3c03475d3eb14da3U, 0x3d8f71533e947b54U,
  0x3ac04baa3e6a38b4U, 0x3c7093b1be49874dU, 0x3e51c95dbc9df487U, 0xbc63206a3dd60a48U,
  0xbe040ae13e0d762aU, 0x3d9544b6bdf77899U, 0xbdc73a1abeaa763dU, 0xbee9acf1bdec2339U,
  0xbe47b6d4bd86ce43U, 0xbde84707bed63589U, 0xbea961d3bca1356fU, 0xbf00ea71bec1a17aU,
  0xbda73a27bc87c16aU, 0x3e27e653bdc6834bU, 0x3d41f243bd98e37aU, 0xbf007d1039b8ceaeU,
  0x3d96ec05be391bccU, 0xbd37596c3e855f8eU, 0x3cce54803ac6e5deU, 0x3cfe242a3dcc8b41U,
  0xbe0d70553db0f63cU, 0xbdcfca60be247994U, 0xbdc94146be834f8cU, 0xbb7f0938bd67d25eU,
  0xbe7edc0e3e46ead2U, 0xbecaa4483da13ba7U, 0xbe068a5a3e116befU, 0x3c63bfe23d7e8e32U,
  0x3d4f3814bde4e186U, 0xbe6229a4be7e568fU, 0xbe4b7f3abee81f6aU, 0x3e0ff6563db11e64U,
  0xbee45c43be028790U, 0x3cb37f72be7cb16dU, 0x3e902462be9265a1U, 0x3de085963e14bd14U,
  0xbeeaacd4bddc2badU, 0x3c0858de3d28d32eU, 0xbd2376bb3deb4442U, 0xbe818729bd6b7627U,
  0xbec4f748bdc59c58U, 0x3e4e0979be086e90U, 0xbe0595edbde573ccU, 0xbe153fd03c3010f9U,
  0xbe6fae363edd2ab4U, 0xbe8cabe1bdc10c5cU, 0x3d0c49c7bb0fe529U, 0x3dbe9ec43c0f4379U,
  0xbf0e61f0beb6560aU, 0xbe211242be2f657cU, 0xbe292d203d6ec4e1U, 0xbeadcd01bea43410U,
  0xbe66233cbcf219b1U, 0x3e1a47bfbeb6f39aU, 0xbe229408be938dc4U, 0xbe01d5cf3e8de30dU,
  0xbe3f24ecbf003a6dU, 0xbcb54453bea59310U, 0xbdeed73abf3d4209U, 0x3e1be21bbc9ccd20U,
  0xbe91a967bec8dff9U, 0xbcc3e986be821cfeU, 0xbe8a917fbe6ecc67U, 0xbe31a0b93840d5b7U,
  0x3e4de46fbe77a108U, 0x3e12e886bd46c7e9U, 0xbdc7bdeebcc4c1d7U, 0xbe83f9eabe03262fU,
  0x3e1ab668be03d629U, 0x3e0fb9363c9ce230U, 0x3e0677d2bd216889U, 0xbd2f0a8abd030e9fU,
  0xbdf0ef79be74c596U, 0xbd7c53bbbde57a9bU, 0xbcc76ce0bba34bebU, 0xbde20f2fbceab08aU,
  0x3e61098d3ebe3e0aU, 0x3d8e9b07bdea9467U, 0x3e868b3f3d0e99a9U, 0xbe0215bb3da4acb9U,
  0xbeae2be0be8f769fU, 0xbe3cfb27be315aa6U, 0x3af4ce6abda482a3U, 0xbe25a0a7bcef4719U,
  0x3d7623cfbe0996d9U, 0x3dc797093dbe54beU, 0xbba5ee89bd63992cU, 0x3d3a79bcbe11ceaaU,
  0x3db35d6e3e013dc1U, 0x3dbc9eab3de12bfaU, 0x3d8139843db4b8d4U, 0xbe3afc9abd483abdU,
  0x3eba11213ec337bbU, 0x3e8b70833e9d1c33U, 0x3e850cf83ec4424cU, 0x3ea239733e44c5e0U,
  0xbede8866bf277f98U, 0xbf47413fbf2e0b42U, 0xbf322e01bf0cb341U, 0xbf0c0c6ebf14cddbU,
  0x3cd6f48d3d12ffe7U, 0x3b2a4e963e55282fU, 0x3d684ce03e916153U, 0x3e5ee87f3e34cf10U,
  0xbf2798303d789dacU, 0xbe336b3cbdf19db1U, 0xbe254b83be83ede2U, 0xbd9117f2bedad70aU,
  0xbe0f028bbe296313U, 0x3da4d07cbef59e91U, 0xbea8108ebe38742dU, 0x3da95d743da79bb2U,
  0xbe52d67dbd81580eU, 0xbe8b6fd5bd67cd76U, 0xbab22923bdba1778U, 0x3e60f856bdb15ffcU,
  0x3bcd42fd3e9ba916U, 0xbf023719be252f14U, 0xbcb4f800bdd3b215U, 0x3dc0fd1cbdc79091U,
  0x3cfd49753d92a687U, 0xbe4ab17d3da28889U, 0x3e271d89bdaedd49U, 0xbe4a7762be5ac19eU,
  0x3e1534c9be684ca5U, 0xbe2de3b5be63ca49U, 0x3b4be18cbebe993bU, 0xbbd26a6ebe69081eU,
  0xb983264eba190719U, 0xba1b999439d8ebadU, 0xb9d1f30bb96bf720U, 0xba13b05dba268482U,
  0x3afcbd323a16e420U, 0x3aae6cb73adfe357U, 0x3911d6583ac221fbU, 0x3a709be0391c8cf1U,
  0xb91120b939b7833dU, 0x3a8c09833a59fac1U, 0x3aac26f23a9cf549U, 0x3a0a252d3a302deeU,
  0xb8e10f843a871572U, 0x3a3ee0c23ac433d9U, 0x3a98c3a73b1e2bbbU, 0x3a33abd53af12b2cU,
  0x3a8d97073a60b5f5U, 0x39fd3be8b8380360U, 0x39c769d7b9d0c73dU, 0x39dd7b2a3a8fd218U,
  0x3ab5ae763b007a5bU, 0x3aa1b35c3a60c8f3U, 0x39bb369f3a7bacbeU, 0x3a3887483998f078U,
  0xb80492043890de5cU, 0x384d2ae53788a1a1U, 0x3a38c029b92a3a29U, 0xb7b267c339719965U,
  0xbe0c951abd5db713U, 0xbe8df217be9bbc7fU, 0xbe911119be0ca708U, 0xbeb14c04bea02b65U,
  0xbd78ff9ebda19594U, 0xbdf9276d3dac624cU, 0x3d94d9933b518a92U, 0xbe25fd2dbde9c95eU,
  0x3e5bbd1c3e08ee79U, 0x3e27ca5cbd990b5dU, 0x3da747103e588d46U, 0x3eb9e3ed3dc2cff0U,
  0xb9f282973c8b3ed9U, 0x3ebe37edbda0dcb6U, 0x3cbde26b3ea94b47U, 0x3ed2d6f03e5e7629U,
  0xbcbcc795bdb2b331U, 0xbe4d946fbe513099U, 0xbdc0f7d4bd6346d1U, 0xbe1fe928bdc19d8aU,
  0x3dce7bb7bdc1d927U, 0xbea03deabe9f49bbU, 0xbc626a57be9b1714U, 0xbe22469f3da6c01cU,
  0x3e0ece2a3edd0786U, 0x3e8cf8643e34184dU, 0x3e7745963f0552abU, 0x3ed2c9623e2b7990U,
  0xbe0cb2d7bdffa3a4U, 0xbe7fd3b8be8fd7f5U, 0xbea55a60bd97b593U, 0x3e85cb8cbe449e48U,
  0x3d168ae83dbcc399U, 0xbc9adad3bd831046U, 0x3ebd94d33e24dd4eU, 0x3e166578bcf66025U,
  0x3e2031bc3c8862b3U, 0x3f073d083e10c939U, 0x3c2b0fed3eac38efU, 0x3d49e4103c722ed0U,
  0xbcba91f03e45d32fU, 0x3e82f8bb3e79ae78U, 0x3d071e7a3e5d4b7fU, 0x3e5caa213e096dcaU,
  0x3dfbd7b33c18fbcdU, 0x3d851a73bdbbbe57U, 0xbd30f3453d1b319eU, 0xb830aa7abd5d8165U,
  0xbe48e2773d981940U, 0x3e6ef999bc72b196U, 0x3d3b123dbdbf83a9U, 0xbe22b4cc3c93bc93U,
  0xbdf6ce8abe76f4ffU, 0xbe288605be1bb8b2U, 0xbec76bb9be147707U, 0xbbb347eabe007818U,
  0x3d80fa75bd92b78dU, 0x3dc1c61f3dbb2fdeU, 0x3e8048883e044a98U, 0x3e9b54893e9fad69U,
  0xbe1867d6be920f50U, 0xbe82a077be40d398U, 0xbe4fb8f1be44d42cU, 0xbe0dd2acbe6f18a8U,
  0x3e65ece03dc5e1b9U, 0x3eddb4bf3e650d63U, 0x3ec95e803ea908bcU, 0x3efaef713eeda316U,
  0xbdb0df34be7bd6cfU, 0xbd85b7ad3e03a189U, 0xbe0ba21ebe18a8e8U, 0x3dc49adbbd7a3171U,
  0x3da3f7a0bb843d84U, 0xbd0e09513be2a737U, 0xbdceaabe3ceb97eeU, 0xbdc88b7abea93115U,
  0xbe43a449bea27773U, 0xbe1b9554bc949c09U, 0xbea5332abeae690bU, 0xbdb75d19beaa6653U,
  0xbd5063593d3c02a5U, 0x3e002e3e3e0948f0U, 0x3bd4bdf03ce8ba55U, 0x3e0d99f2bd5761a7U,
  0x3db599193dc11b44U, 0x3e7c1a8e3da9a1e8U, 0x3ddf6ebf3e5ac602U, 0x3e0264143e23e2a8U,
  0x3e75dba13e89781aU, 0x3e47cb513eabb7d8U, 0xbd98d9803db2f6b1U, 0xbd9d7a57bc27c6d8U,
  0x3e94aba73d4ac368U, 0x3e06b61f3e73fc94U, 0x3ec776373d79097cU, 0x3e1d42963e84a011U,
  0xbf0e6cafbefa8435U, 0xbf36ca12bf416664U, 0xbec29e12beea8cfdU, 0xbe668930beaf3cf2U,
  0xbe64ed75bddea5afU, 0xbe1f838f39dca743U, 0x3c805411be6d0091U, 0xbc8e0398bdfc3035U,
  0xbd3baec33d5fd5f4U, 0xbd419b783e3012c0U, 0xbdb233ddbd3015e0U, 0x3e30991bbc1c4f85U,
  0xbd8cac2abd0d2ca0U, 0x3efc53763eabe82eU, 0x3e5309e23e40854eU, 0x3e21292b3e191ecfU,
  0x3e2adf2bbb9ad028U, 0xbdac18a2bd92c2d2U, 0x3e6af2ab3db3cd1bU, 0x3e94332b3de9b35eU,
  0xbd0f73263e733c34U, 0xbd57d93b3dd4fbadU, 0x3e72442a3e14eb21U, 0x3e15771c3e1af4aaU,
  0xbd915d09bd7e9f99U, 0xbd8c49c6be5ff6dbU, 0xbe99dffcbe1af91cU, 0xbe0fc3b23b569ac5U,
  0x3da99aef3d9f51f5U, 0x3e2271d33e63a535U, 0x3ea5f728bda0923fU, 0x3d71417fbd5a537eU,
  0x3ea4828f3e08d4daU, 0x3e9feeb5be3b337eU, 0x3e4b64883cea41ecU, 0x3db866753913d110U,
  0xbe956c41be5d9180U, 0xbc554e4c3cf2e990U, 0xbdb570293df75729U, 0x3dfdbe773e1bbed9U,
  0xbe67212ebe3c46afU, 0x3e3058fbbdec6d47U, 0xbd6e9a46bdbcdde9U, 0x3c3fc3cebded4fd5U,
  0xbd8e7469be4d1eacU, 0xbcc7c55cbd94ca3eU, 0xbe92ea65be3350c9U, 0xbc08f732be601e30U,
  0x3dedb50f3ea91cc3U, 0x3e1d20a83e2b824eU, 0x3e4be2b23e502135U, 0x3da1af483e282e5aU,
  0x3ecaec793eac2badU, 0x3f134fd43e9dae78U, 0x3ebc97073efc4187U, 0x3eb9f7563e7da4ecU,
  0xbf108bd3bd34d6e8U, 0xbec5ed95bf1bd3c0U, 0xbefcbf95bebde8e8U, 0xbeb42fd1be6b502eU,
  0xbe46bde3bed12d5aU, 0xbd8fedb3be5835e7U, 0xbe8e2a5ebf214ac0U, 0xbf284609beedfe60U,
  0x3e0689403d8713d5U, 0x3e2f68b03e5d979fU, 0x3e6385d33ec2e7d0U, 0x3e00cd453e981bf6U,
  0x3dedafd53d33d86cU, 0x3e22c4cd3d2fafc0U, 0xbdfcfadf3e8267fcU, 0xbd9fabbf3bab9ce2U,
  0xbbb73d18bd0cb6adU, 0x3df4b28c3ca354fdU, 0x3e16c43a3e054434U, 0x3db7ce7b3e455eedU,
  0xbe665a79be8d9fc4U, 0xbe50f7f7be8d4457U, 0xbe9c80dbbe9e0226U, 0x3cfd77a3bc441afeU,
  0x3ecc8efb3e61ccffU, 0x3e0b853a3e1ad834U, 0x3f07ab363e1b8e1fU, 0x3e08a3893f048c8fU,
  0xbea8a604be50bfd3U, 0x3eda26b5be52ece0U, 0xbd598370bedbc2e7U, 0x3e86a78a3dd40b93U,
  0xbe3142e3be3c2d83U, 0xbc3c63b3beaa02ffU, 0x3cc1762e3dcd8d6aU, 0x3dfb752b3e052055U,
  0xbb3ac0a1be3d5077U, 0x3e38810dbdaffbaaU, 0xbdd40bd6be5d36d5U, 0xbea9802fbe36b7b5U,
  0xbdb29fe0be529abfU, 0xbc40d6263dbd4b6fU, 0xbd9bc618bdaa7b0bU, 0x3e3cf62dbe453b42U,
  0xbe1b30533d732851U, 0xbcf258b53daa700eU, 0x3c890e9a3d805abeU, 0x3e23e30b3d6ca162U,
  0x3d0a0f2abcbedb4cU, 0xbdd9036cbd9348cfU, 0x3d2fe7f33cfc1977U, 0xbd6573bb3ce43deeU,
  0xbe86476f3e1b6ddfU, 0x3ee4d8e63e613431U, 0xbd62709f3d9922daU, 0x3e9c4ee23e178410U,
  0x3ccc00173d35f756U, 0xbdac58ff3dda8b8cU, 0x3d90bf49be33d12fU, 0xbe178eb1bd9b75b5U,
  0xbe55f070bcd4f6a5U, 0xbe7c2dd7be358d82U, 0xbb8e1302bcbd0b9eU, 0xbd35da10bedebad8U,
  0xbe3febaebe841391U, 0x3e59ebdbbda6fc52U, 0xbe197ce7bef029d4U, 0x3d96d1fabdc0b79aU,
  0x3e86b8d83e4271d9U, 0x3e4d61343e9ae3beU, 0x3e61da4f3eb9c5d9U, 0x3e5b7e243ec79c78U,
  0xbe785710bf132d16U, 0xbe6732fabe81b006U, 0xbe1d2b86be215514U, 0x3b96713fbe6db833U,
  0x3e38a8793e843ef5U, 0x3e8edb5bbe193f63U, 0xbd588fe63e3b1035U, 0xbe950b243dff4b19U,
  0x3e284e02be44158dU, 0xbe1c3be83e485cd8U, 0x3dbca6e0be3b1262U, 0x3e02f4d73ecf8748U,
  0xbe41e577bcbb9854U, 0xbe654b3e3df0d089U, 0xbe84c7f7bd2d30cbU, 0xbe3a1d993d43a7d8U,
  0xbdd6e855bd0b0f09U, 0x3de9c5b6bdd8b122U, 0x3cd61f1fbb9faa66U, 0x3cdac8a1bd9b7f67U,
  0x3f09d4383c2f7742U, 0xbe3c7d293e3ece51U, 0xbdbd4b70bda3dbf2U, 0xbe10597a3e470650U,
  0x3e36b4a03e30a1ddU, 0x3e7c91993e7280b7U, 0x3e2d3cce3e93f1c6U, 0x3e8132713e7b2a81U,
  0x3e5f5a893e24fe4dU, 0x3ebcb07a3ea17a0aU, 0x3ed74ed63ef45128U, 0x3f01cc533edf0ba9U,
  0xbdb75ddd3e1dab5bU, 0x3e3f6e7f3d83b9f8U, 0xbe3a9cecbdf35abfU, 0x3dbd93f43caa7591U,
  0x3dd931d33cee4a50U, 0x3cc089de3d9bc87cU, 0xbe149a6ebdd0ec5aU, 0x3e82ae183e9ea845U,
  0x3dfd6b313dac687aU, 0xbe9626e2bdaaa42cU, 0xbc6bce16beccc3abU, 0xbe7fffe7bd6ecc83U,
  0xbc9f8f413e757a6eU, 0x3e5ced3f3d68a0f2U, 0x3e00a5343d645cb9U, 0x3e2e7d743de5597eU,
  0x3dad3b733ddec775U, 0xbd799ded3e34e9b6U, 0x3e8b87753e5dfd18U, 0x3df15b243e2f1f55U,
  0xbebb6981bf0207b5U, 0xbd4c92c4be283811U, 0xbec7a8d1be5db9c3U, 0xbdce1532bd8486c4U,
  0x3e0554cfbdba4f9dU, 0x3ea087013e4df335U, 0x3eae5e2f3f00ba09U, 0x3e1619973eb4d219U,
  0x3dc8712fbeac2c17U, 0xbd9a3f683b3da6edU, 0x3e3f4916bd8dd415U, 0x3dc142cbbe279ac1U,
  0x3ee7cce3bda5db78U, 0x3ebb38d03e9f4943U, 0x3e7feaa03df55cfcU, 0x3e67902cbdd4ff25U,
  0xbe508b1f3ca662d9U, 0x3cbb90293e5e8dcdU, 0x3e9f8e863d8bf3e2U, 0xbe736eea3c9b0687U,
  0xbda575d0be78f1e1U, 0x3d169f79bce27eecU, 0xbdca2b46bd68711bU, 0xbeee24a7be25ee69U,
  0x3ddd2eafbe9fb8b7U, 0x3ea8627e3e4e0c70U, 0x3dddc1fb3d9e043bU, 0x3e35e6533dfe8cffU,
  0x3edc6c20bdfee30cU, 0x3e3fc8be3e8ae85aU, 0x3ea892df3ebbef6cU, 0x3e85f11e3e9b10dcU,
  0x3f0812debdf467f0U, 0x3e268d2d3edd2a4fU, 0x3ee1c1513ed983f4U, 0xbeb125d73e84c188U,
  0x3e8743133e18266eU, 0x3d0418dbbd2db953U, 0xbd90035f3d406229U, 0xbda16aafbccc9355U,
  0xbdcf61b93e4574f7U, 0x3dd91b233db01a5cU, 0x3e28f97cbcc01a8fU, 0xbdb568863e752b53U,
  0x3dd519d23dafc545U, 0xbe32148ebe93c173U, 0xbd0f0ade3cdf83f4U, 0xbdabb99e3d987f69U,
  0x3decc3bcbc9a0c3bU, 0xbda11a713d8f537aU, 0x3dbeb41bbd7367bdU, 0x3dbf033a3d962709U,
  0xbc4b824e3d8c5cb8U, 0x3d1798103df89548U, 0xbdce3838bd123257U, 0x3e48b2163e44336aU,
  0x3e99e90f3c21c73eU, 0x3e463b733e0c4a8dU, 0xbdf08ecabce8d23bU, 0x3e82afa73e401398U,
  0x3ecffa8e3e4ca7fdU, 0x3f144be93ee11ff2U, 0x3f105f203efb0c95U, 0x3e85064f3e91b89eU,
  0x3efaa0503ef0469dU, 0x3f16d06f3eaf28aeU, 0x3ec520633f0c2947U, 0x3e614267bcb0f331U,
  0x3e01d46f3e6d250eU, 0x3eaa8a9b3ea0f8e5U, 0x3e30160d3eb09fe9U, 0x3e920420be1dd76dU,
  0x3eb619a13da21a47U, 0x3e3e4def3ef58a11U, 0x3ef5bf943e66717eU, 0x3e4cbac83df08e5aU,
  0xbc94f2f8bdb2a0c4U, 0x3dd90f003e8d7572U, 0x3e78cd963ea1b63bU, 0x3d33bf243e6e1e05U,
  0x3a6ebd623ddfe3c6U, 0xbe4208cb3cdc0ea6U, 0xbe00bcecbd9fae0aU, 0xbe3bdc65bce73fa4U,
  0x3e0b00463b17d034U, 0xbe3074223e15cb30U, 0xbd4f3c623e39fdaaU, 0x3dc389713d7a25bdU,
  0xbe59efffbec865b3U, 0xbead3c7dbee01a16U, 0xbe157a91be76951aU, 0xbeb9d57cbea00462U,
  0xbe043e28be945ac5U, 0xbe0557d5be01d85aU, 0xbe69ca47be3e59b6U, 0x3df09866bd428014U,
  0x3d385e6cbe955ba2U, 0xbddfc309be0cad36U, 0x3e34ea3c3bf5ad22U, 0x3e296f163e308aeaU,
  0x3e11ff67bbc75630U, 0x3bff7c0d3e3e662cU, 0xbdd977c0bdfb2348U, 0x3e429ab43dbd281fU,
  0xbd9600d93dd63f22U, 0x3e2a64e2bd697d09U, 0xbb7b86be3e01e460U, 0x3d27088e3c25ea93U,
  0x3e3274a03e1297fbU, 0x3e8164a13e9c44b2U, 0x3e77791f3e9bbf42U, 0x3e0598e13e30579aU,
  0x3e4f0be93eb3ced7U, 0xbd200c103e356bf1U, 0x3e5e56233dd89343U, 0x3cda7b093db2986dU,
  0xbbb6138cbe8d25ceU, 0x3e88a4c63e4dc26eU, 0x3e54b1483ef11bb6U, 0x3e542995bdf46bf7U,
  0x3eb72d47bdb52041U, 0x3ea16c833e85dd13U, 0x3eed2f7f3e31d115U, 0x3cb706a83e69f760U,
  0xbda303cebd4fc243U, 0x3de021233dac67c8U, 0x3e4a93963ec1f481U, 0xbd32d0cb3db2676dU,
  0x3b6db2b53e022ad7U, 0x3db83de83e3343aeU, 0xbe942e6f3eb2e4eaU, 0xbd46a3233dca7a91U,
  0x3d69b4153d97013eU, 0xbd8bc676bd154fdeU, 0xbdd051943da2d5e0U, 0x3e738dbc3d1add08U,
  0x3de8f374bdcad141U, 0x3dad58f03d142d75U, 0xbcf2d2bc3df71759U, 0xbe16996c3d711fabU,
  0x3d8aa99cbe6c3b1eU, 0x3cee87c53e91f890U, 0xbea4ec39bc911287U, 0x3d393f633dcab6feU,
  0xb98091033a092f97U, 0x397ac26cba2da63cU, 0x3a8b6e893a8bf07aU, 0x3a59f2873b1c69e9U,
  0x38aaa113391864b6U, 0x3a35050a3a6270dfU, 0xba4a0083bb128453U, 0x3b09e9233a087e49U,
  0x3abe4ddbbab792faU, 0xbacce41bbb1648c4U, 0xbadcb422ba6e01beU, 0xbb313f5eb9f2d33eU,
  0x3b1e3b783abc94b5U, 0x39c2c8adba024610U, 0xba029a0c3a116ed1U, 0x3a2925893a2372aaU,
  0x3a0cde323afcb4d6U, 0x3a69b3e839ca1fb6U, 0x3a27f5d4b9f6d3a0U, 0xbadd1fd33acebae4U,
  0x3a47e3843960983dU, 0xba68eec2b656a341U, 0xba58347dba811224U, 0xb972a7453ac1349eU,
  0x3acd24af39dc51f2U, 0x3b1fa0d73ace7ce0U, 0x3a1014433a933b91U, 0x3a0814213af70dd0U,
  0xbdb512c9bd3b4b5bU, 0xbd2137e1be12ce38U, 0x3daa6749bc7d29b3U, 0x3d4152ba3d9b651fU,
  0xbe1c2526bf12f3edU, 0xbec317ccbea0388eU, 0xbdf9c68e3d0b81a0U, 0xbd9490debeffab7dU,
  0x3da346eabd5506f6U, 0xbd454c953b14ee03U, 0xbe00905fbdfcbc63U, 0xbd6de0473e50f07dU,
  0xbbd82e6f3d2caa0aU, 0x3ed62e9b3e9be7f9U, 0x3e732295bed3d305U, 0x3df311e33d08b581U,
  0x3e5d6f0f3ec465f7U, 0x3eee75473eea1b09U, 0x3e2cfe7b3eb0a8a8U, 0x3e8593d53e53d431U,
  0xbdba3ffcbe0b349eU, 0xbde774823e2d641bU, 0xbc72d4bf3e5d07deU, 0xbe7e58be3d1e18dbU,
  0xbdbffb22be4cca95U, 0x3e14f2063d96416bU, 0x3e1c30fd3d646882U, 0x3dccfffa3e0ed193U,
  0x3e129e303e57cc72U, 0xbddb1ba7be3aaf2bU, 0x3cb910dcbd3468abU, 0xbeb11c773df4adddU,
  0x3e2e6f64bec8e68fU, 0xbd6aefbabddc9500U, 0xbb930dec3e8615ddU, 0x3dff2eee3e6f8759U,
  0x3d995b20be69f416U, 0xbddfddadbc8326bcU, 0xbd6ad968bdb58fcbU, 0x3d0490a5bb71d0c2U,
  0xbbd1e34e3e83ec61U, 0xbea69d85be6e7f95U, 0x3e9e6f31be9d81edU, 0x3b19c309bd876488U,
  0xbcec4862be731cd1U, 0xbd69361d3e9c7c7cU, 0x3c836ad93e9ab0dbU, 0x3e27933fbd95d90cU,
  0xbca4732f3c71ed0aU, 0x3bd39de7be15fba3U, 0x3d85c53f3e04a7b7U, 0x3e881754bdf2cec1U,
  0xbe096427beb2db91U, 0x3cd8383dbe9ecd4cU, 0x3c99b5dcbddf5345U, 0xbdba2b3dbd8b2193U,
  0xbe96031cbe90c3bcU, 0xbeb81a2abe76d288U, 0xbed3acccbebe2f5eU, 0xbe476766bed4245bU,
  0xbe8f6f00bdbb8e88U, 0x3e7ee083bb96db39U, 0xbd9429613dea5503U, 0xbc7289173ea90c4cU,
  0xbe8d6c90bed594f1U, 0xbdee375dbed08de8U, 0xbdd9b69f3d8289b7U, 0xbeb9294c3cab42e2U,
  0xbdd99e7d3ecc6baaU, 0x3d1230ccbc730d0aU, 0x3e03d8923e16a62aU, 0xbd1ddf293ddcd1adU,
  0xbe639b903d1685f9U, 0x3e2b92e23e0e452cU, 0x3e66f1483cac11b5U, 0x3d8690afb9117297U,
  0x3d37d3083ed6190aU, 0x3e5872f13e30052bU, 0x3ddbbc2c3e9ae670U, 0x3e8801693e59af67U,
  0xbd832dde3da87e62U, 0xbda05ad6be3082dbU, 0xbda1f123be1d36d2U, 0x3d238283bd87d789U,
  0x3d2a9550bd876500U, 0x3d8480443e873e40U, 0xbd8b7056be49f05bU, 0x3e2eaa283c0207c0U,
  0x3d204ba63d83ee6fU, 0x3cce125bb8f03044U, 0x3e1cf73ebd739061U, 0xbd65fff53d3a0af2U,
  0xbdc520c8bb6fedb0U, 0xbe604cf4bd944ae6U, 0xbdf36084bde6bc53U, 0x3dee5490be4b2549U,
  0xbe192215bdc3aba4U, 0xbd763884be7e954bU, 0xbd34620f3cda1e63U, 0xbe0517433ca4c52bU,
  0xbd716168bee2ad3fU, 0xbe19014ebd71f125U, 0xbdd5e27fbe4a67c9U, 0xbe1bfb15bdf37bf3U,
  0xbca3312dbdd2243dU, 0xbdf2d51abe49d3cbU, 0x3dcde7a43d7d1d2bU, 0xbcd296493d2b3627U,
  0x3ec9214c3e854169U, 0x3ebe7c5f3e3f377dU, 0x3da4b3893d862599U, 0x3e0965303e6b678cU,
  0xbc49936dbe26de6aU, 0x3e7e814cbd930528U, 0xbc7ef31e3e471649U, 0xbe2d9e403e187dfbU,
  0xbe2898f0be1dc00cU, 0x3e466a1b3e316690U, 0x3e6908203d4a6e5bU, 0xbd672abbbd239ecaU,
  0xbe38eff6bf10ee31U, 0x3da893453e3655ecU, 0x3d5379a33dcbd2ccU, 0x3e84993fbd986762U,
  0xbe47d0dbbe71f605U, 0x3c7b1c913cc2e1edU, 0xbe571977be0255b8U, 0xbe0c92fdbd0b87beU,
  0x3e6e71a8ba806770U, 0x3e84af95bc1ed0fcU, 0xbda4b2a3bda12b3eU, 0x3d26b96fbd66cadfU,
  0x3d4c9085be0bddedU, 0x3db6828ebe095482U, 0x3e4454423d09a792U, 0x3def7deb3e21d2d8U,
  0x3dae93543c42a0ecU, 0xbe65f7c33e4162a8U, 0xbab9f5ef3e35d239U, 0xbecb5d183d45a113U,
  0x3e37a2863e059a6fU, 0x3d0f8faf3defb99dU, 0x3cb50c39bd4a4497U, 0xbdf02481bdca0a29U,
  0x3f02ffc73e14e48bU, 0x3defd52d3df1e802U, 0x3e1a455f3e83fa6fU, 0xbe789c7a3df3f44fU,
  0x3b834b7fbe9ffa4aU, 0xbde2bcbe3dee3ec8U, 0x3e9548bf3d3331e0U, 0x3d00262e3ddf0a75U,
  0xbe7fc82dbe7523e6U, 0x3d8fb08abe3256d2U, 0x3eb13a3e3e383474U, 0xbe8a90b1be5e378fU,
  0xbeb00ee2bf03a856U, 0xbf0038b4bdbcbebdU, 0xbe26b955beb19656U, 0xbe24f28cbedc32f5U,
  0xbe005874beea22bbU, 0xbcc19ec1be0a44ddU, 0xbe36500fbd18ddf3U, 0x3cfd9616be1aaa4cU,
  0x3e6891ed3ec0b775U, 0x3e992dc73e833420U, 0x3e86b7ab3e1451ceU, 0xbd0d5ca6bb58fd09U,
  0x3e44290cbe872405U, 0x3d8aed223e363322U, 0x3e798d903e1315f5U, 0x3e09f43b3e01eabfU,
  0x3ccbc4303e395841U, 0x3e2e18a73e00b7f7U, 0x3e89db383e12961cU, 0xbea004a2bd179dc0U,
  0xbd68b2efbda3785aU, 0xbd253bcd3cf81e23U, 0xbeea6712bbb0a065U, 0xbe9b5985be226b69U,
  0x3e1bfd9ebd267299U, 0xbe8aeffa3dd70831U, 0x3e9b41023d205abaU, 0x3e69f6b23e29b1cfU,
  0xbd3f7a233c98ca11U, 0x3e8436ae3ec3654fU, 0x3eddcef73e2d4317U, 0xbd8037af3ead5969U,
  0xbe22076bbdd3107cU, 0xbe8b61473c113b47U, 0x3d748d0abe8eca84U, 0xbe106749be2581deU,
  0xbd80df473dea8d9bU, 0x3deb982c3d8044c9U, 0x3d01afd03e75a0fbU, 0x3e6274473d7fbac5U,
  0x3e002b703eb9e499U, 0x3e06555a3e23c0ddU, 0x3e9e2f9a3e903112U, 0x3d285c3b3ed58f05U,
  0xbe326ec7be826a35U, 0xbd2c200fbcd0611aU, 0x3eb618a73e879e3eU, 0x3e1feeee3c9f9540U,
  0x3dfc3957bebc19fcU, 0xbe70b609be98a8afU, 0xbe617637be0e5c44U, 0xbe3fe6aebdb6a96fU,
  0x3de362863d747d44U, 0xbc98f1ad3e328a71U, 0x3e9a0e2e3d355cb0U, 0x3e8fd79e3e9473f1U,
  0xbd98506bbd9e6718U, 0x3e0319d43e33d9c6U, 0x3d8c5e913cd434e4U, 0xbcc0a2ac3cf6a619U,
  0xbda2949fbe86f265U, 0x3e0c48ed3db4470aU, 0x3c8498633c304203U, 0xbe29846ebe1ad279U,
  0x3d0d23eabe01b420U, 0x3d901116bdba914dU, 0xbb544e513d906fc9U, 0x3e8140273ddc52faU,
  0x3e09711ebe56214aU, 0xbd74b997bd029891U, 0xbe611347bdf1b444U, 0xbc9714e6be93d872U,
  0x3b34ed4f3de15a46U, 0x3e6907143d4b8d51U, 0x3e05d8a33e917692U, 0x3ee144ec3e7ab533U,
  0xbe332a33be83d190U, 0x3d5248b4beb2a203U, 0xbc81bd3abebafb43U, 0xbe1f230abdc9c501U,
  0xbe1d0f2c3ec658ebU, 0xbd01218b3d6856f9U, 0xbe89f42a3e094df1U, 0x3dc09c9e3dee0140U,
  0xbe9730f6be1cbfdbU, 0xbeb0d276be8c68b3U, 0x3dd73c93be2b3f0fU, 0x3ca0c0d33b17c6d3U,
  0xbd98fb6b3d523f0aU, 0xbd38bbc53d865bb3U, 0xbe05043cbe678ecaU, 0x3e5c34e4bcc050f1U,
  0xbd40a6e43dfaef77U, 0x3d4f57603ab1bc93U, 0xbde9a6db3cc09beaU, 0xbe010ab1be2d48e9U,
  0x3dd0da9c3d360b31U, 0xbe0377a9bca68f80U, 0x3dcedd4f3d1f9a35U, 0x3c685c51be0fc6cbU,
  0xbe4c8106beed50d2U, 0xbc415128bdc8c163U, 0xbe79bad2bda324d5U, 0x3d8f3840be367bdcU,
  0xbe7cafacbeae4749U, 0xbdb4bbe4bdd93730U, 0xbd07822d3e8ab395U, 0xbeb5a88abe9125b3U,
  0xbeab09cabeab5b68U, 0xbe66bdd5be94f7feU, 0xbe865c9dbbd8fe09U, 0xbe96da58be5d3feaU,
  0x3e5381e7bdbcd550U, 0x3db1f0303e920a41U, 0x3df2c6543e33c21aU, 0x3c6c7d693d3c0326U,
  0xbd7769273db209e7U, 0xbe0a8be6bd0b3b66U, 0x3cf1eae23dbd79e3U, 0x3ee0c08c3dcbb842U,
  0x3df28ec53e27a4b1U, 0x3e5394f83cc1bad4U, 0xb954e3b83bc55671U, 0x3e0313ae3e52b662U,
  0x3e89c7c93f2d3befU, 0x3e695fd33e956617U, 0x3e50e2443e8b6c94U, 0x3ebd156d3e9923cdU,
  0x3e3840253e8e1b24U, 0x3e36b9ba3cb7e41aU, 0xbe1cbcdb3c7aa3afU, 0xbe7366a6be03fb8fU,
  0x3dce9d5abcff6034U, 0xbd5753213e38b6aeU, 0xbe1790523e36851eU, 0xbeaa06eabec16b9aU,
  0xbec03d39be50e45eU, 0xbcaf2358bec8ff65U, 0xbed901dbbec5d1a7U, 0x3e9cab0ebe5438c8U,
  0xbe4905b2be83a90bU, 0x3e9186e3bdd58594U, 0xbe9e7cdfbd1dbe4eU, 0xbe0b766b3d971e51U,
  0xbea2ece63e18424eU, 0xbe1075a5be33caa6U, 0xbeb24814bd9ebfd3U, 0x3e249e973d004069U,
  0x3d021c79be089b5dU, 0xbd856b2b3db78a48U, 0xbc82643dbea30197U, 0x3d958fba3db3e008U,
  0xbdad07f9be99d7c2U, 0x3e59ec6bbd430751U, 0x3e2170353e0ef5a5U, 0xbed678683d9d21d4U,
  0xbe220a943e8c84c8U, 0xbdd668753e69212cU, 0x3bb356ce3e9755d7U, 0x3e1bc6543e05689aU,
  0x3d8b279b3d5889cdU, 0xbe0372863eb580f5U, 0xbe1c01483e26ee76U, 0x3e07bafebe7e9d20U,
  0xbc79f0f3be1d3baeU, 0x3d2d37a2bd6cbf82U, 0x3d0268c13e82ca83U, 0xbe166ec1be687a36U,
  0x3d25f495bd977069U, 0x3e30523d3cfbfc8cU, 0x3e423fefbdb2db70U, 0x3dad17b83ea0a272U,
  0x3daf997bbe5eee5eU, 0xbd007592be01b365U, 0x3dc071773e479858U, 0x3c399dfd3e14e64dU,
  0xbc3bbdd0be8189f5U, 0x3e23934dbd2a41c9U, 0x3d111973bdc16c76U, 0x3dd78e73be30ae15U,
  0xbea16cf9bf061952U, 0xbe7a303cbed46783U, 0xbe8568f0bdd21087U, 0xbe9c64e5bebe23b1U,
  0xbe1f4855be55c880U, 0xbda536f13e2a08ddU, 0x3e202f11bdbd5f61U, 0xbeb649913e2ab34dU,
  0xbe59bcfabe6c2eacU, 0xbdcd2c84befdea7eU, 0xbd4c56fabeb89609U, 0xbe9dfb933d32113dU,
  0xbe6620053f010d50U, 0x3db2ee1cbe06c51dU, 0x3dd0633cbda92ed2U, 0x3f03da593e47bcbbU,
  0x3e02b2f23c4bc33dU, 0xbe4911d5be7cb05eU, 0xbd8cb01e3d1fd1baU, 0x3dbe5c7e3ddcb7d0U,
  0x3de1a833be216d84U, 0x3e56221a3e028cc1U, 0xbd089c5a3df11ad1U, 0x3cf38bb33e2a347fU,
  0xbeac564abec4e471U, 0xbd0a8722be85867aU, 0xbe8f9bf4bedfedf0U, 0xbe847450be6514b4U,
  0x3deee2233d1ffe2bU, 0x3d7e9e5bbdc5604dU, 0xbe871019be1b2519U, 0xbea4fb70be7a0259U,
  0x3ed8e7843e4daa1cU, 0x3e834b203ea491e4U, 0x3ec514b03eae4931U, 0x3ed0a1583eacc1d1U,
  0xbef06129be5713a2U, 0xbe1a0784be5b0209U, 0xbdc76b9b3cab32a2U, 0x3d8fa2f2bdcabef0U,
  0xbed8a6dcbed89734U, 0xbf2b3bccbf25354aU, 0xbe3193a0be86f41eU, 0xbea7ab2cbeadf5ffU,
  0xbdc7c9f4be31077dU, 0x3c18a05dbd8b7558U, 0xbdf1ea71bdf77d8dU, 0x3e2a2b213cc56385U,
  0xbe0253823d709aacU, 0xbe5e6600be919a74U, 0xbc37d092bd44837eU, 0x3d0e24a1bd815558U,
  0x3e8f02db3e6e2d06U, 0x3e696cea3ea8ca81U, 0x3e0e24493e7cf9abU, 0xbd9e68a23ea8df3cU,
  0xbe9d6478bc5b2504U, 0xba426a02bc7a90faU, 0x3e48167cbed76ba7U, 0xbe37b2423d94a864U,
  0xbea94fd13e82ba87U, 0xbda9224bbe229661U, 0xbdde24253d2d1801U, 0x3e67eac2be15d4c1U,
  0xbe7532b23e3bff97U, 0xbe5f2234be11adf3U, 0x3e635a4bbe4fc896U, 0xbc90c82cbd5f0fe6U,
  0xbc94ddc83ea89c5bU, 0xbe690b80be921983U, 0x3e809ebb3cbaa84dU, 0xbdcab4963de0012bU,
  0x3e6a924d3df64620U, 0x3e814703be73d4fbU, 0x3d6f5a6f3e3436f3U, 0x3e7be1dc3e96cf9bU,
  0x3e3f540cbd9b5622U, 0x3de76053bead5153U, 0x3c5a8f74bea7150fU, 0x3d1bdc1f3ccbcee5U,
  0x3e343acfbe4195d3U, 0xbba86843bd10929aU, 0x3dbb27a13d84d1cfU, 0xbe67ac86be136074U,
  0x3b01e3683a94f6fdU, 0x3b0b268d3b027615U, 0x3a2a40493a4322e8U, 0x3bacec373aad5f76U,
  0x3aa1a4ea3a8025f5U, 0x3afcc3223ac378efU, 0x3abd40073a6399f6U, 0x3bbfcbe63b042f7aU,
  0xb98c0efd398b5357U, 0x39da1f5c392e8c92U, 0x3a97f5913a8e003eU, 0x3adc0f8a3a0fbf8cU,
  0xba8ec96e395a4408U, 0x3a06d0e4ba9b89b6U, 0xb9bc93cb393b97faU, 0x388357ca397bccf8U,
  0xb82edfa8ba109fbfU, 0xbab31cb2ba3ba733U, 0x3860b705ba69c91fU, 0x39da692eb8b16d54U,
  0xba5a915cb9583182U, 0x39c3e0d0b9d5e5a1U, 0xb9b96ac63a003a7fU, 0x3a89384839beeb09U,
  0x3a74ee5b39016dbdU, 0x3a54564b3ad3256aU, 0x3a828e153a9b44aaU, 0x3907c8193a95b09bU,
  0x3e93cf673e9b8451U, 0x3dcb76913e2ceb04U, 0x3d477976bd025ff9U, 0x3d77d24cbcb931dbU,
  0x3e3205b9be534c38U, 0xbe4d9bc53dac7656U, 0xbe0a928fbda82bf8U, 0xbe19b956bdb99423U,
  0x3e00cb7d3e5921caU, 0x3e605564be2fe0baU, 0x3de4a5953de907c9U, 0xbd8aa4e2bd957da9U,
  0xbecc2bc43d05e8e0U, 0xbec83009be25783eU, 0xbf40d985be9b08f6U, 0xbe3a2e7bbea66095U,
  0x3d465bab3e69f513U, 0xbe614a98be0c3adaU, 0x3d28253bbe1964eaU, 0x3dc8f116be05e83bU,
  0x3ea1f21a3e1d67c4U, 0xbe3786f03dd1d23fU, 0x3d813d9fbde0e7f4U, 0xbd81b71e3d1dfac3U,
  0xbe6a8cf2be6c8c19U, 0xbe8fe047be6e5fcfU, 0xbe7b9626bed8a43eU, 0x3e0e210b3e0bb9b5U,
  0x3da1124b3c96cfedU, 0x3de6b3763eadf987U, 0xbd19156a3dc4eabbU, 0x3d8570da3cf74e7aU,
  0x3d93571b3e430cabU, 0x3c098bfe3d5716e0U, 0x3e88a8ccbe3747a6U, 0x3e91099b3d9bf741U,
  0xbb4f04c73cb4fd10U, 0x3e9d0d02bb6ed2c2U, 0xbe039c28bd98111fU, 0xbc7435f63e09e6fdU,
  0xbeb19bfdbf005d2eU, 0xbe369933bd32e3beU, 0xbe846426be8eba08U, 0xbec4dd93be02ad83U,
  0x3dfc11983e0b5de2U, 0x3c6d94f1be4e567aU, 0x3e36b71c3cce18eeU, 0x3e2c132e3d442d24U,
  0x3da04be43d52b3cfU, 0x3e85f6503e2c0be5U, 0x3cebab463e067386U, 0x3dd480043e7a5461U,
  0xbbc8cee7bddfe658U, 0x3dbae9543cc6a59fU, 0x3b9917dc3dc6a5c7U, 0xbd13deb5bd6c7633U,
  0xbe44024abe8bc64eU, 0xbcd3d9d6bde3ac8aU, 0x3d2c15a33dd78565U, 0xbd1e9d25bd6af7c0U,
  0x3ede14bd3ed1cffdU, 0x3c716e3c3e353c21U, 0x3dd72e073dd62b08U, 0xbe01d999bed5e66fU,
  0x3df740623e8fa28fU, 0x3eb8bcc13e858c0dU, 0x3e57917e3e9dd95fU, 0x3e212b7c3dd05701U,
  0x3e3aca2dbda24909U, 0x3efbf6bc3e69f6b9U, 0x3e9861923e917299U, 0x3e3062c23ee9be4fU,
  0x3e9ce62b3e5279b1U, 0x3e3da110bc82daf4U, 0x3e17b4aebd0c8ae8U, 0xbe2eb61d3e61adbfU,
  0x3d8471cfbd2d49f3U, 0xbd330a8a3c3eb20dU, 0x3c74fa74be62424dU, 0xbe020bd7bdf8ac50U,
  0xbdf4b908be4f5122U, 0x3da52754bdcfe00cU, 0x3d92234abdc31596U, 0x3d5caf673e53f633U,
  0xbbcde35dbd1e6623U, 0xbda2781bbd83dc0bU, 0x3e37eff43e5d69aeU, 0xbde7dda53d46cfc8U,
  0x3ea76fac3e6a85efU, 0x3e9215e73effdd09U, 0x3e3232eb3e9fe865U, 0x3e912d843e9e196eU,
  0x3d09c499be0009f2U, 0x3e26f275be96a186U, 0x3e6fa7483d259996U, 0xbd42709b3e6b0864U,
  0x3e8656b73e8ada93U, 0x3aa4c1963e6d1c05U, 0x3e28e9193e59fa7fU, 0x3e5439fd3e071496U,
  0xbb7ef2d13d9216afU, 0x3e114a163d439f7dU, 0x3c94920c3d4d3e2bU, 0x3dab805b3de79ad5U,
  0x3e9cf67a3e90f843U, 0x3de025573e3c33c7U, 0x3e6fd325bb27d73bU, 0x3e8d23593ebd22e1U,
  0xbef52391bdb34848U, 0xbe508d22be932ba4U, 0xbe00478abe0ccb20U, 0xbe834dc2bdd39a11U,
  0x3d9bd69c3b09944dU, 0x3e8bd644bd83332aU, 0x3d0656053c82c062U, 0xbc2c64453e254c10U,
  0x3da25c45be27b071U, 0x3cfe6b393d0f5b01U, 0xbcbc09a53dcea195U, 0x3ee1d8e2bcf6b592U,
  0x3da2ffde3ed17581U, 0x3e31c2603e505f42U, 0x3eccba0a3e0f755eU, 0xbdfcb6c13dbe6d23U,
  0xbe90b398bdc85eeeU, 0xbeb43076beaeaa64U, 0x3d4252583d618c57U, 0xbe800c65be58e8abU,
  0x3e38b3be3e043286U, 0x3dab7c913e5a24f8U, 0x3e7c78633dae991aU, 0x3e3da1103e2e263aU,
  0xbd04c2c23eb35b95U, 0xbce47fbd3e3d8704U, 0x3e195e573de6f032U, 0x3eafab653e326b40U,
  0x3b6a22473eb0f06fU, 0x3e8cc6823e83e01bU, 0x3d9317cc3e6be822U, 0x3ece4bc13e627297U,
  0xbe80d3483a33353fU, 0xbf06e927bed01347U, 0xbeda66c8be90fefaU, 0xbedd49cbbe93fc7fU,
  0xbe17444d3e676a78U, 0xbd164b21be0ad65dU, 0x3d8a40e43e8ef129U, 0xbe8aead0be7cffb3U,
  0xbe50ce8b3f21c925U, 0xbe102b1bbe8eb24dU, 0xbe11d75abeb8efe4U, 0xbd1346af3d957a15U,
  0x3e8e76cb3ea169d4U, 0x3d994dfa3e8aacf7U, 0xbcfb21173e1a284eU, 0x3eb6b8f13d2984b9U,
  0x3da89727bc862bfeU, 0x3e23b481bdba3469U, 0xbe4327583d2521bcU, 0x3d17b6763cdd3be1U,
  0x3e4c49053ee2c317U, 0x3ea1148a3e623610U, 0x3e066c5f3da6524eU, 0x3ed03ccf3e8d3e83U,
  0xbdd7f388be209ac1U, 0xbe798d28bddded71U, 0xbe42d220bef34502U, 0xbe678893be003d3dU,
  0xbeae04a0bec51ac2U, 0xbe3e0ccdbe9a6959U, 0xbe99552ebf03383cU, 0xbe851dfdbe51f6c7U,
  0x3dbd02f23dbb92deU, 0x3eb94e6e3e748065U, 0x3da96b1a3d8885ddU, 0x3dd1a8ce3d7dc2beU,
  0x3e01b158be7d5521U, 0xbdd9754abeccf5a8U, 0xbd7052e5bcd20135U, 0x3db0bdbebdef2bcaU,
  0x3e4d80c63f43771dU, 0x3e9441673e273971U, 0x3e6f063f3ebcb62eU, 0x3e37299c3dbe678fU,
  0x3ce301e93dd54754U, 0xbe475cb93b89022fU, 0x3d23b11cbdd22f69U, 0x3d9851debdec851dU,
  0x3f0a366d3e0e25baU, 0x3e68cd8d3f08740dU, 0x3e88df1c3e59b30bU, 0x3e262404bd087f97U,
  0xbd99e46fbf1be7f6U, 0xbec57ce9be640c80U, 0xbe43245cbdd38838U, 0xbf0c3105be485ddcU,
  0x3e8163e83e4f7ebaU, 0x3e6bde5f3e0d9089U, 0x3e72a3b23e994df4U, 0x3edfb9a63e24d440U,
  0x3f0722b43e8c2089U, 0x3ec56abb3e5883b8U, 0xbe0ee8e63c817e58U, 0x3d2493de3cf5ae1cU,
  0xbccdd29b3e190b92U, 0x3aaca3683e606ad6U, 0x3e39ca393e124b92U, 0xbe1ab26dbe4a0feaU,
  0xbe5fc1843d715666U, 0xbd668970bd81cb2eU, 0x3de4a5623dd5710dU, 0xbd210601bd35909cU,
  0x3e9c79bb3ea2b840U, 0xbd85576dbd93741dU, 0x3e05aa3a3e9d93efU, 0x3e2e95bd3d769b1dU,
  0x3e07d70a3e904d62U, 0xbeae52ab3d231d0bU, 0x3cbef85a3debd91dU, 0x3d43ed61bd0a36b4U,
  0xbe2936a1be52a9f4U, 0xbe7f4f6cbe8ed145U, 0x3dc45e72beac6009U, 0xbe5246b93dcd6abbU,
  0xba1738a5ba02a629U, 0xba42d724b9de51e8U, 0xba35eb3cba229362U, 0xb9e7f07ab9fa389dU,
  0xba646982ba50bfa4U, 0xba6effd4ba062220U, 0xba130e04ba198c10U, 0xba041e57ba4481adU,
  0xb9e96ceeb9f2cfb3U, 0xb92e64143890b797U, 0xb950b4e7b949f322U, 0xb9cba521b8bd0f76U,
  0xba6a0df3ba0a517eU, 0x38e33e5bb9322469U, 0xb90c80edb932756bU, 0xba1bc244b99af0ccU,
  0xb9889f46b8cb3020U, 0x38e6459037e92efdU, 0xb968760f381039e7U, 0xb890e815b91166dcU,
  0xb96559daba1eaefcU, 0xba607934ba64086aU, 0xba71111bba0feab6U, 0xba530a23ba261eaaU,
  0xba6f0f6eba5792f2U, 0xba2a5fc0ba16e6d5U, 0xba20daa0b9f10ac6U, 0x38bc27b0ba5c52dcU,
  0xb99b031e38f10ce4U, 0x367bae64b9882dbeU, 0xb86ea734b904c82fU, 0x38a86227b90898d1U,
  0x3889a9dab85538d1U, 0xb925d015b87ef5bfU, 0xb9344c93b93808d4U, 0xb917b64e3925e969U,
  0xba054029ba25dc1dU, 0xba3b70e2ba14710bU, 0xba2e32aeba055468U, 0xba68c86eba3e0b45U,
  0xba6f6785ba01b382U, 0xb9f094e4ba4bbb49U, 0xba296bf2ba0b7f16U, 0xba384f79b9e8fc32U,
  0xb9edc210ba41425bU, 0xba59a9a7ba67e7e9U, 0xba082ea8ba6f9e37U, 0xba3afad9ba1f9f10U,
  0xba0bac22b8ae2879U, 0xba4daf60ba3a387bU, 0xba403fd8ba2092c7U, 0xb9e72402ba5183cdU,
  0xba535226ba42a05cU, 0xba37dc57b9fb8ca4U, 0x38f2e2a6396a156eU, 0xba1e0b76b8ef3da7U,
  0xb9378bb3b628efccU, 0x38afd2afb9810196U, 0xb93c74e9b88bf92dU, 0x388f46d1b8de7578U,
  0xb785e62ab885bb32U, 0xb91862f1b957f523U, 0xb94380d037a7b7e8U, 0x38d57ca6b5b97561U,
  0xba4f321bb9193c0bU, 0xb974dc6637661d28U, 0xb9e0902cba2eb307U, 0x395e874039321946U,
  0x38410274b90d9471U, 0xb984ccf0ba4ccfb1U, 0xba14db9cba0f00f3U, 0x382898d0b815bce1U,
  0xb9dcf413394287e8U, 0xba24dbfdb99441c8U, 0xb8022e67ba3d905eU, 0xb86c7523ba522d67U,
  0xba544a7aba160a06U, 0xb96a4e65383c03f5U, 0x38486dc8b9854fc1U, 0x39548fb7b9998fbcU,
  0xba447250ba02c4d7U, 0xb614374db9077557U, 0xb88bd34ab8391e7fU, 0xb9147380b95d7ccaU,
  0x38b026efba2065e3U, 0xb7fcdc42384b239dU, 0x35e62bcbb9e617b4U, 0xb9cac38d39339d8bU,
  0xba3e4252ba4a4f94U, 0xba33279937a3c859U, 0x392ff725ba39e082U, 0xb9f2767fb9c0ed69U,
  0xba49c59cba44605bU, 0xba089fdfb9e28efbU, 0xb9e43963b9ea6041U, 0xba3926a0b9bd4b5fU,
  0xba443364ba517b34U, 0xba5ecf73ba201a8bU, 0xba335eb9ba0721c7U, 0xba0d1f77ba5c1dc1U,
  0x3905118bba5607aaU, 0x394009223939bc7fU, 0xb53cf287b809de03U, 0xba04684dba2d1729U,
  0xba10545fba5515e0U, 0xb92ba6c3b9d009a7U, 0xba6e0cb6b86f4466U, 0xba3f9a53b9090822U,
  0xb92aed5eba1b24bdU, 0xb8cfdf3839163fe0U, 0xba36b023ba0e6962U, 0x3818d1d1b9e95451U,
  0xb80b8df9b9735972U, 0xb93f085fb89d3771U, 0x398aa69a388d573eU, 0x390d17ab390357c1U,
  0xb8834184b8b23336U, 0xb9e3126aba09f774U, 0xb60e53deb81b2329U, 0xb94b6295ba06a7d8U,
  0xb8fd0a76b913446cU, 0xb884c493b691b633U, 0x39068b99389e8e46U, 0xba4a50e3ba2c2722U,
  0x38f97f71b99620dbU, 0x3887ca9cb860a49eU, 0xb898952db99ab704U, 0x38ba6dfcb7c717e7U,
  0xb80b70e6b93700cdU, 0xb7ffe3de392d3c64U, 0x39417b3238e57a52U, 0x37c88b1bb96061a9U,
  0x393a69a2b962ca9eU, 0x37ddb974b9683c95U, 0xb94d1f9cb80e68d3U, 0x396a14cbb99735c6U,
  0x39913ed8b8f9387eU, 0xb9062566b801ab30U, 0x38c11cdfb9e38dffU, 0xb9f9c255b98a759eU,
  0x391e1a57b8323d5dU, 0x39420ebfb929fb5eU, 0x38de0fdbb909c1a4U, 0xb549dd0338e71202U,
  0x38a9d258b8c96e1dU, 0xb98d25d9b8dcf592U, 0xb9840b80b947941fU, 0x39211c12b955e949U,
  0xba536f0cb7c9f3c1U, 0xb925f8d3b9dc2ddaU, 0x39153aecb9495077U, 0xb8e14cf1b81a5ac5U,
  0xb9fff61eba543595U, 0xb9eac716ba1e6d6dU, 0xba2dce15ba5a7c73U, 0xba5ce72eb9fb7c2cU,
  0xba22669eba09ea59U, 0xb93eb705b853f5eaU, 0xb76796ddb908e709U, 0xb9cbccdb3953656aU,
  0xb9e3154c38982401U, 0xba07b8f5ba1d8c00U, 0xba5898a0ba39c0d7U, 0xba499feeba55c66cU,
  0xba624f1bb9cbad60U, 0xba16189eba09a0e2U, 0xba0c3ebeba46037fU, 0xba3a181fb9c75919U,
  0x383a07d9ba119798U, 0xb83b1847b9106e1dU, 0x39221a4839442ca2U, 0xb90edee0b912992bU,
  0x3948babfba50217dU, 0xba4bc7acba31d6c7U, 0xb9f1cf14b7c59623U, 0xba701ce0b993dea3U,
  0x39de93ceba5f7616U, 0xba187f55391c2dfcU, 0xba27e0c33827ee5eU, 0xba2bcdc0ba38c813U,
  0xb9d45061ba0ff452U, 0xba413410b94160f1U, 0x39c4f74eba3d0394U, 0xba6a0238ba558913U,
  0xb9d66ab0b9f94b79U, 0x39330074ba66d2a6U, 0x398f796aba4b77f6U, 0xba2e753b390827f3U,
  0xb9c431d0b9e90ce1U, 0xba2b8b60b9efd311U, 0xba2df1d6b9ed15f2U, 0xba496bc5b9f48eadU,
  0xba114a11b9eb35ffU, 0x39569c42ba51a48dU, 0xba04d350ba57a01cU, 0xb9d141afb7302529U,
  0x3934849639425842U, 0x391247f3380ed16eU, 0xb8857b96b95a5dddU, 0xb8d5fe4c396d716fU,
  0xb7c1ecd7b698a81bU, 0x398170093940cb4bU, 0x390c64bf387f4eeeU, 0x396c297fb9481bceU,
  0x3925c6dab8441496U, 0xb9627e42b82e842dU, 0xb9673798385ab1cfU, 0xb96ff2e6b884ecc1U,
  0x38211161b8ffb6e0U, 0x366d4cc238d91452U, 0xb97e26d2395f43c4U, 0xb8994904b97fc11eU,
  0x38d1aedb37db2114U, 0x390b68b03954b7a5U, 0xb7ff385fb8dcc049U, 0x3913975bb8f4e586U,
  0x3958990e377363f6U, 0xb897c0ceb8ceb536U, 0x396e5e4d394fe04eU, 0x37c708a2b85022abU,
  0xb8f6f37cb90e4397U, 0xb939d661b8b65585U, 0x3915903db8ed7f7eU, 0xb7f8f6bd3918e9eaU,
  0x3961e38138a352faU, 0xb93426dcb908b48cU, 0xb8ca9f2fb859063fU, 0xb83275ff3945be61U,
  0x392df8a5b90c5557U, 0xb9770638b9858c93U, 0x37c2636838b2ab72U, 0xb8c8d9d7389afdfaU,
  0xba56269db9e3d488U, 0xba07833fba3bb1c5U, 0xba04e24eba1de57bU, 0xba2c5d43ba488f67U,
  0xb998465eba6c751aU, 0xb95e46c7b8744c88U, 0xba302714ba2196f1U, 0xba0dcc4bb9ed5882U,
  0xba427e4ab9238c48U, 0xba689b92ba17a2cbU, 0xba426cbbba57905bU, 0xb9f92170ba19dc15U,
  0xb962cb3cb91dda18U, 0xb980ed49388b5065U, 0xba1d0ba7ba5975cfU, 0x3906fba4b9928fd7U,
  0xb9e8e603ba2b43aaU, 0x3838f3bdb8d62480U, 0x39504f5d39047ff1U, 0xba5e4dfd37435c42U,
  0xb99811c3b99501caU, 0xb9474adfb7ce97b9U, 0x3918ec9d38d9f54eU, 0x37a6ad0cb93d6009U,
  0xb96d0866b8f2edddU, 0x390f2258b9474d2fU, 0xb950856a382af207U, 0x39252a9c38cac20eU,
  0xba65628eba026054U, 0xba23e7bcba223db4U, 0xb818fedfba5fb103U, 0xba14a113358dbf94U,
  0xba0d2d49ba31bc22U, 0xb97b462fb8b3e923U, 0xba1592d2ba369832U, 0xb9f572bfba4f50faU,
  0x390ae943ba02eac0U, 0xba2f1691ba3d1375U, 0xb8fe8af8ba569a15U, 0xba0f249fb9db164aU,
  0xba411f3ab994a9beU, 0xb9d8da32ba3aa6eeU, 0xb9c6cbf7ba2e2fa9U, 0xba686085ba2620bdU,
  0xb941d8d3ba425a71U, 0xba2e5e52b9e41b75U, 0xb91e0fee391f32d4U, 0x38832429b9d2df3bU,
  0xba43f67bba3b3f84U, 0xba446d77ba4109a1U, 0xba179836b9f9f4deU, 0xba1e9515ba35a47bU,
  0x38b938b2b913dab8U, 0x391aad9b3945324dU, 0x389a0f76b9108208U, 0x39195c99b901e43eU,
  0x386fcec6b9c19e5aU, 0xba0b8af23923c1faU, 0xb9ff0ae2b9f25f71U, 0x36e21faa38dea308U,
  0x37b3856239160b07U, 0xb8904f9038031ab7U, 0xb9728686b9860e3bU, 0xba59854fb934aed3U,
  0x38ff5b40b8c5c834U, 0x395377adb7a34bf4U, 0xb88e6bd3b9816183U, 0xb950a9a0b905cff8U,
  0x3934342537c982c7U, 0xba3f0a84ba16df8fU, 0xba1b161cb9e523fbU, 0xba3a3a0ab864b6c9U,
  0xb6c1579339065cffU, 0x38f262ddb8a97154U, 0x394b3370b90a26b4U, 0xb8a1c8beb8b17d9cU,
  0x38b6ee1db7d4d03bU, 0xb925905337f6978cU, 0x381b8f07b92f3df0U, 0xb924142cb98619a3U,
  0xba35ac2eba163e8bU, 0xba4a048db9fa1104U, 0xba52e719ba5b31f4U, 0xb9f81103ba0ddfcfU,
  0xba39154cba560550U, 0xba5ded5ab6e02ed6U, 0xba4659acba35ae37U, 0xba2164a2ba5afb75U,
  0xba0603ac382a7c7cU, 0x386edf10ba2ca8b0U, 0x39303adcba0818e9U, 0xba582fe8b99b7935U,
  0xb848690cba024826U, 0x38b0cbac385fac7bU, 0xb8e32cccb96c2fe9U, 0x395c533c39863fbbU,
  0x394a5bfaba3bc075U, 0xb9239772ba2783e6U, 0xba4f50a4b9fcc7a4U, 0xba00ac10b89800fcU,
  0x39169d9ab8f06b80U, 0xba2c4fbdb996f6a4U, 0xba123b00ba364b75U, 0xba7045f9ba0b077aU,
  0x3896ed45ba13e66cU, 0x39258fb539001e15U, 0x393a5544b93f13c1U, 0xb953bffd392f7bd8U,
  0xb690640c3962ad8dU, 0xba139208b90872c6U, 0xba035da73960cb62U, 0x3819cfd9b8caf89fU,
  0xb9e7953aba1215dfU, 0xb9bdceecba1306bdU, 0xba0866cdba30fc30U, 0xba31e56d39002463U,
  0xba584746ba01905cU, 0xb9e1e160b97d965cU, 0xba24541cba20925cU, 0xba300b26ba328b84U,
  0xba0b05f7ba026b34U, 0xb816a6d5ba3156eeU, 0xba3cede3ba260e01U, 0xba47767eba51c5ccU,
  0xb9fa404fb9fee5dbU, 0xba39ffe6ba343bc8U, 0xba3cd5ecba306574U, 0xba3da662ba5d20f5U,
  0xba3d999cb8602d2dU, 0xb8896f7aba2c4e47U, 0xba075b1ab8547c8aU, 0x3959bb27b838e6feU,
  0xb9f0db40ba3deeb0U, 0xba0427a0b9c8a43fU, 0xba145d8aba61d664U, 0xba4579c3ba0de20cU,
  0xba40f9b0ba11db89U, 0xba23c51bba071c0dU, 0xba598a43ba0f5956U, 0xba3d191dba4187b2U,
  0x390e7216b91bef66U, 0xb797539b381d5a7dU, 0xba33af04ba361433U, 0x3931d70cb9f60f62U,
  0xb8af3bfdb93ce5adU, 0x39400f6738b0cdbaU, 0xb987c1c8b96491ddU, 0xb745b3de38ae2c64U,
  0xb994e5e3b9039c1cU, 0xb91125da3874e4e5U, 0x38d830bfb9929b83U, 0x395f494cb99aadf5U,
  0x383e29f9ba49674fU, 0xb7ef343a37ef70fbU, 0x38af74a8b97d654cU, 0xb7d71d24b9292beeU,
  0xb99076e1b963a92bU, 0x38549df138067f81U, 0x39153a96390f16bcU, 0x38f83fecb8dbfff9U,
  0x390f5cf6ba3f18beU, 0x392feeee392ea9f1U, 0xb94d6d57b7744f42U, 0xb9f2fdf0b8e4e3a3U,
  0xb7a4b86f378772ecU, 0x39820b99b8cfe0d0U, 0x38d90834b8dc425cU, 0xb92496a5b6967d31U,
  0x3611a298b91d48ecU, 0xb96d72a7396041b7U, 0xb90f6d7135f6998eU, 0x36b4b54e394ec71cU,
  0xb9706eb7b91e1ec6U, 0xb92010b3b8fbc223U, 0xb93062633912ba73U, 0xb88cb4cf391987b3U,
  0x3939d51c39179701U, 0x38662c1e394d085aU, 0x38ac8ea338ae76ceU, 0x3954a967b97c7d00U,
  0x38aff7f138a1b2d4U, 0xb9795381b9792c79U, 0x381b32e1b96ff92cU, 0x38d687e1b93a79ddU,
  0xb8c07373b914fd6dU, 0xb965e8a9397258c2U, 0xb8bf03b5b9759b96U, 0xb8a18837b888597fU,
  0xb907b82bb990df0bU, 0xb98869c0b8b61dafU, 0xb9301946b893f9a2U, 0xba1d143a39465bfaU,
  0x394f9bf0394636abU, 0xb88ee4a8388fbde6U, 0xb85f6a62b969673eU, 0x3954c5fdb8d6be44U,
  0xba385e8bba010f96U, 0xba3a0476ba1741deU, 0xb9f8b76eba4fe6aeU, 0xba4dee6aba149983U,
  0xb70491b1ba494badU, 0xba43ccd2ba06f389U, 0xba42dd2db8585dd0U, 0xb8641d56ba26ad25U,
  0xba300228ba2dd0d0U, 0xba17db46b9fbb969U, 0xba2381d5ba0af01fU, 0xba049d96ba24a2bcU,
  0xba5ca091ba6430f7U, 0xb80846a6b94968dbU, 0xb967ef3739269148U, 0x394a3a6338b6aee4U,
  0xba57edefb9e0f14eU, 0xb9d45f6cba3baffeU, 0xba4bfa6bba0050e2U, 0xba477a5dba374b65U,
  0x3e13259fbe6e87e3U, 0xbe4ac0403db90d17U, 0x3e2b2a2bbd859c48U, 0xbe82c4113de0ed1cU,
  0x3db20f773e8d0cebU, 0xbe4b718fbe37cafbU, 0xbe873b41bd3adc99U, 0x3def1849be06e130U,
  0xbeabd401be6ac3b8U, 0xbc89b21abdb9d5b1U, 0xbc25b3703e30d50fU, 0x3ddfa979bed29670U,
  0xbe7ea8f6bf0b2926U, 0xbebd8da4bd9bee7aU, 0xbe4be2503e0daab3U, 0x3e144287becf58bdU,
  0x3e5a2fae3d0500bfU, 0xbc513f8f3e500de7U, 0xbeada6eabf052ed8U, 0xbde4749a3e262710U,
  0x3d662e143efe468fU, 0x3e73c7d03de06e0cU, 0x3e57dd493d647ad6U, 0x3e2dbb02bd56098cU,
  0x3e316c1a3e228db5U, 0x3e82b7793e966139U, 0xbce6e6463e1f2c7fU, 0x3e1936e73e2edc8fU,
  0x3dd9b336be08ab2aU, 0x3cfe18383d80c720U, 0x3de0777b3e179ef5U, 0x3cf54ca33c59b698U,
  0xbe6476edbc035b74U, 0xbecb700bbdffdb32U, 0xbee03814be4725e4U, 0xbf07a973be2fe226U,
  0xbb2b3dba3e819107U, 0x3d6f3419bc5423afU, 0xbdbe6104bbfb48e6U, 0xbe5a0705be0e753eU,
  0x3e684c463da39cd0U, 0x3ccb6812be04296bU, 0x3ca11b983e1c7944U, 0xbc08575a3b6ba31aU,
  0x3e8d4cb53e8d52a0U, 0x3dd0f6403dda25f8U, 0x3e5e18aa3df0c33bU, 0xbe7378f33c541cc0U,
  0x3d07cf7d3da20beaU, 0x3db0b1873e26c1c1U, 0x3d0c80c2bdc2f54eU, 0x3e5dfadabd9a6b12U,
  0x3d2e465fbda24a1cU, 0xbd9ba09abd81bd9bU, 0x3e00f050bdfd4a1cU, 0x3e2a91d03d96ac37U,
  0xbdada28f3e780813U, 0x3cfe01603df28b01U, 0xbdd0b829bd9306beU, 0x3dab3e593b53bdccU,
  0x3dbcff6dbead32c8U, 0x3d8ff0b4bdee1666U, 0xbe77d0e83e61fa15U, 0xbd62ea0cbe491d0cU,
  0xbdaebc61be88a05cU, 0xbeb9d35cbe5e3762U, 0xbedee511bf21b3f8U, 0xbe9a6ea1be4803d7U,
  0x3ecbf9603ea897e1U, 0x3e11d7833e43cf12U, 0x3e9f78dbbd8e1fe5U, 0x3e85699c3d23651aU,
  0x3eb978633d13a855U, 0x3dad02853e69ab0cU, 0x3d1ff9713ecb38beU, 0x3eba8a1f3e9a9a23U,
  0x3dcaff8b3c5db9eaU, 0xbe723d58be935e67U, 0xbe78e7e13d6d96ebU, 0xbf26dbee3dbef568U,
  0xbd7a4886bdd16268U, 0x3e9cc3a8be004048U, 0xbd989903bcdbb014U, 0x3e34adc9be410e10U,
  0xbe36d60dbdb406eaU, 0xbe9b90c9bc77ccacU, 0xbc856c4b3b15d316U, 0xbe8d5a253e55313cU,
  0xbeb521453e597577U, 0xbdb6bf583e909b73U, 0x3b1ea384be01ce3cU, 0x3e5ba0e03e8e2b82U,
  0x3e90c6403e57454fU, 0x3e15cf883e7bbf90U, 0x3d8af4b3bea028aaU, 0x3b68232fbef6fe2aU,
  0xbd8c5a793c5a829fU, 0xbd13d467bd5b4bbdU, 0x3d7e3ab5be310189U, 0x3d19ca893df90867U,
  0x3e09189cbe07e357U, 0xbe2cbb2a3d1cfc9bU, 0x3c125a813dc19b16U, 0xbf04e491bcce3abaU,
  0x3e3f5b5a3ea615b5U, 0x3d8037d3bdfb5ed2U, 0xbd1d299fbe17212eU, 0xbcb35eb9bd771dc1U,
  0x3d182372be0e2e40U, 0x3e8a958e3e8f6241U, 0x3daabf86bd1bab00U, 0x3ea95b8ebd7c5b50U,
  0x3dbfc2f6bda224b0U, 0x3f0e3b363ead593eU, 0x3ea9e38d3efd369eU, 0x3e885acb3e91d178U,
  0xbeaec3aa3c830274U, 0xba63250c3e206bbfU, 0x3c869dd13d226ec0U, 0xbd6583b63e7ba8f4U,
  0xbe2b97bfbed5dfc0U, 0xbe94b47dbe86f095U, 0xbeb79aae3d0f17c8U, 0xbe87ba8f3e8694b4U,
  0xbe171e78bc8a5f2cU, 0xbe3c7739bd7a1791U, 0xbdd01052be80e676U, 0x3b8b4b873dc1f544U,
  0xbe339dadbe85ce6fU, 0xbe5baf033c59932bU, 0xbeed23e9bedd26acU, 0xbd4ff8873c7f2b9aU,
  0x3d2e67b4bd906fe8U, 0xbdc883e43dafea15U, 0xbe5136dabe9c948aU, 0x3dadc42fbe3a5d4fU,
  0x3e6700a53d3b8e63U, 0x3df9ecbc3e33102fU, 0x3d1787553d9f5e11U, 0x3ddabeffbea0f7b5U,
  0xbcc0f4fcbdeb0f04U, 0x3d4aee6d3dda1bf1U, 0x3d99bc783c269cfaU, 0x3c1de2de3e1d092bU,
  0xbe3b0c3dbd8befddU, 0xbd7275e2be93d245U, 0xbe8db3d6bd9f0e92U, 0xbe8b8e3dbe3981c1U,
  0xbec5598dbe522141U, 0xbf0807b3bf0e855aU, 0xbf0cbebebd494053U, 0x3e16cd94be68729cU,
  0xbe1abc22bda08148U, 0xbd87ff913ce507c1U, 0xbdba9315be1e66deU, 0xbe65eccebe8fe921U,
  0x3e1c92c0be006cc6U, 0xbd76b6ba3c5b3a8eU, 0xbdae7950bdffa096U, 0x3e80f128be3cbd58U,
  0x3e38ec5b3dd7a578U, 0xbc70d0fa3e12360aU, 0xbe461a833b97d9d8U, 0x3e80f6efb9091fb6U,
  0xbdc12350bcd2ee72U, 0x3b94c19b3cc2dfcfU, 0xbd5baacf3c013039U, 0xbc08fb0b3d7030bfU,
  0x3d07d58e3cdc3684U, 0x3d4305b43e9df316U, 0x3f124b203e1baedfU, 0xbe2a9e38bd8ee8b9U,
  0x3e71102c3e1de9caU, 0xbe773b633e9d4bbaU, 0x3e30eec33e4a4c25U, 0xbc1d3acbbe03f841U,
  0xbea7f21fbea2c7d8U, 0xbe28895d3da9b713U, 0xbe8d68df3dc4b40bU, 0x3b1d8f61bf365796U,
  0xbd7727cebf347c36U, 0xbe498071bcc7f819U, 0xbe7909bdbd4ef980U, 0x3dec7e173ea38be7U,
  0x3ed6f827bb7d6216U, 0x3c60063b3e61c21fU, 0xbd726fabbdff9420U, 0xbe10d93f3dcbaa5cU,
  0x3e2b4cc93d2d52ccU, 0xbe15ec093cfef30dU, 0xbe2d2e0bbdb8fffeU, 0xbc51f5dbbd02ee1dU,
  0x3e403315bd8abf4aU, 0x3d8839463e68d51aU, 0xbc2104703cf45b0fU, 0x3e0743d83e8292deU,
  0xb93c26e3baeada6aU, 0xba3585953a053ea8U, 0xbabd429fba41b610U, 0xb8c61720bab6455dU,
  0xb96047e3ba1b2672U, 0x37f62308b97c33d4U, 0xba42705aba09d1e1U, 0xbaddd9d93986c057U,
  0xba5c9559ba7147e0U, 0xb9c71150ba54956eU, 0xbaae339dba0882c7U, 0x39d91b61babe1c01U,
  0x3ae88d5eba692b37U, 0x39dea8fc3a9d207bU, 0xba085ecd395cdc15U, 0x3b136798bad3363fU,
  0xbaf80e9dba9a1e79U, 0xba919716398c5ffcU, 0x3aa727493abd23a7U, 0xb91375043a668f26U,
  0x3a1c7f36b8b83cf3U, 0xb98e405aba459684U, 0x39f44f6dba42894aU, 0x3af86d5cb92af00aU,
  0x3abc6705bab5ee25U, 0xbaa7b0d7b805b39eU, 0xba3ca4b7b96ca639U, 0xbb0921aab99746b5U,
  0x3e4296c53e8407b3U, 0x3e4b71ce3dc2e19bU, 0x3e2d87773e9f8034U, 0x3eaa4e6d3d7ff6f6U,
  0xbe8eff7cbf14b2bdU, 0xbeb1e102bee03dcdU, 0xbf0dfc3fbe2c6143U, 0xbed45591be078f34U,
  0xbde0e4b2bec57535U, 0x3df233cebe744100U, 0xbe5dd5833ba622e4U, 0x3d56a643be0d65b3U,
  0x3e18af7dbd8d2b24U, 0xbecb383a3e28db79U, 0xbe59f3033d5f6bc2U, 0xbc5f92febe8e85b1U,
  0xbe1bfa41be8571feU, 0xbdcd7c8dbdb13daaU, 0xbce14b683de93d6cU, 0x3e2bab033e657e2aU,
  0xbe08b692be03cfd8U, 0xbdb5cbc1be3fdaf2U, 0xbf03b922befc1f49U, 0xbe876891be55eb36U,
  0x3e95b42d3ec6d369U, 0x3b4bd2b13df9beefU, 0x3e0b19ca3dc7b71bU, 0x3e18880b3de8c536U,
  0x3d10eb673e8cdeacU, 0x3de194a8bd42b1cfU, 0xbdff22833e0e7039U, 0x3bb3e54f3e10154dU,
  0xbf06b7e0bea9dad1U, 0xbec04b4ebefd14f0U, 0xbea86290be984660U, 0xbefa9262bde794e6U,
  0xbec60eb03cb7ab09U, 0xbcaebf10bed42bf0U, 0xbed2b5543ddb508aU, 0xbe755ee0beaf8738U,
  0xbe40803ebdfbc5c1U, 0x3e62004d3e1f7634U, 0xbd95d4563e033419U, 0x3e60addcbd174754U,
  0x3de386393e9c8917U, 0xbc4051a4bda86134U, 0xbe0be4c0be34650bU, 0xbe13d2c3bd8578e6U,
  0x3e8070a0be1a4732U, 0x3e8023263ec0870dU, 0xbdbfc1163d34fad2U, 0xbd67f57d3e2ac882U,
  0x3dc4af2ebdf421aaU, 0xbc174c2a3e4050e6U, 0xbde7242ebe1c0252U, 0x3dc4ccedbeb3602fU,
  0xbe4beab2be1ac84bU, 0xbe14a108be174692U, 0xbe756c5abce515c7U, 0xbda2db6a3d17a530U,
  0x3d450231bcf51365U, 0x3eb13aafbd69475fU, 0xbe1e25ca3d52914dU, 0xbdb0de1ebcb19406U,
  0xbea2c22f3e174009U, 0xbdecc5e4be4d81c9U, 0xbb8450923e08a4a6U, 0x3e1de9ecbe16b8c4U,
  0x3d6b18ed3e49a2afU, 0x3ef32c4f3ce276a4U, 0x3c9c557f3d6ae43dU, 0x3db31dbd3e279314U,
  0x3ec545c03ebc97bfU, 0x3eda56b43e89c5a9U, 0x3ea4f1003e5b81b4U, 0x3e41cfad3e1b73fdU,
  0x3c474f43be6d59e3U, 0x3e3dfd053e643909U, 0x3e3febf03ddf8485U, 0x3e84b7233e0c073eU,
  0x3e0b24ef3e5920ffU, 0x3dca7aa83de22296U, 0xbd380bb6bd820115U, 0x3e7991013e029d6fU,
  0xbeb5684dbeceb6b4U, 0xbeaf5e93beb00c2fU, 0xbe51c4debe981af4U, 0xbf24cb53be8e2f15U,
  0xbd8aeaa1be8f8f68U, 0xbdf118e43d85e615U, 0x3aad64e4be276f8dU, 0xbe8c0d03be0824c2U,
  0x3e9e4e2d3e8027a6U, 0x3ed228d43dd59845U, 0x3ea46b7c3e91b711U, 0x3e4672c83e92d54aU,
  0xbe162462bde2d116U, 0xbe8fd749bdc57e82U, 0x3e175e8dbd34cd2eU, 0x3e3bd4633dfbe9ecU,
  0xbebc1da4be5f83cfU, 0x3d0f48eabe3eafebU, 0xbdc0aecdbc7eb4baU, 0xbec86a19be0ee5dbU,
  0x3dd5075b3c896ea0U, 0x3e07f5143cc80e2dU, 0x3e81e4523e2a5b5fU, 0x3e4384b0be50447bU,
  0xbe3d5c1fbc14f533U, 0x3d9d818e3e3eef26U, 0xbe7908983cfe6451U, 0x3ccd722bbe848c83U,
  0xbdadb254be9c714aU, 0x3c14d269be418166U, 0x3e114200bd09d3b2U, 0xbebb833dbe15d54cU,
  0xbe85252fbf026e7dU, 0xbd8d1e30bde34e96U, 0xbdb68d19be545bccU, 0xbe5b7f62bcc5b993U,
  0xbdcd109abe3e0ab9U, 0xbe568e6f3e8f9a55U, 0x3d19ebfcbda3ed3aU, 0xbe28f9dfbeb17a6aU,
  0xbe9452babd96548dU, 0x3e26aa643dbf316bU, 0x3cf751353e83fbf4U, 0x3e117bb63e4f49f2U,
  0xbe9973203d8b4364U, 0x3e397d983e35633bU, 0x3df801d2be23aeedU, 0x3e418bb23d8bf87cU,
  0x3e20f0653e6682c7U, 0x3d745d683d962fa6U, 0x3da76be6be20b1afU, 0xbd9f1e8f3d1452e1U,
  0xbc98b6103d96d029U, 0x3cde31943ddbdb8dU, 0xbcf1713e3e2732b0U, 0xbe3358403e02129aU,
  0xbee1246bbea1d5a3U, 0xbec0cbc9bec41665U, 0xbeefeb0bbedf7477U, 0xbd4d0a50bf236563U,
  0x3ede38f6be945222U, 0x3e43acba3e186b8cU, 0x3d989673bc2847ddU, 0x3e5e169bbe219d48U,
  0x3c2304d3be04171cU, 0x3d585a10bdcc4d43U, 0x3d092ed7bdf956d3U, 0x3e13269a3dac7c5cU,
  0x3d12830b3c3a8abcU, 0xbd56c2943e0475c4U, 0x3ecc2bf73e7e7d96U, 0x3e9bfaa23ef55332U,
  0xbf2f79af3d899956U, 0xbeeaf07bbf3cf481U, 0xbf333640bed6581fU, 0xbf18f1d2bf1f1ec4U,
  0xbdd047de3e8adcd9U, 0xbb1544bbbeaad974U, 0xbca9c5f2bcab28adU, 0xbdc972a3be146a81U,
  0xbf0ecd2fbe0af901U, 0xbda90995bec77f66U, 0xbf38e55ebea31da8U, 0xbdb44713be97b2a9U,
  0xbf1b664fbe5c9670U, 0xbe1f271bbe729d34U, 0xbf1d24e6bedec802U, 0xbf0deaeebf1274beU,
  0x3df3b9a2be27cd71U, 0x3d0fd4b23e83bf67U, 0xba832fb93e0de64fU, 0xbe1d46263d54285cU,
  0x3e76b9babdf411e3U, 0xbd22010abcf0a315U, 0x3e981ea53ea83aacU, 0x3efafe823e7867adU,
  0xbf0fcf0bbf07acfeU, 0xbe827d43be2966e8U, 0x3e0aed73bdcb27daU, 0xbea6f600be1f401dU,
  0xbea4e0f7be2b7720U, 0xbe49d12fbd1a931bU, 0xbebea96dbeda63ebU, 0xbe6a60adbdb67cb1U,
  0xbdf28cad3e9dec89U, 0xbe77ef33bd6f68a1U, 0xbe1bab5abebad86dU, 0x3cc1f89dbe772d2cU,
  0xbe3e68f03e928998U, 0x3e0fe3ae3d0145d4U, 0xbe812defbce7fb73U, 0x3d218b29bdb8ea68U,
  0xbdd2ea873d9e0f67U, 0x3bfb6707be318916U, 0x3e085de1bd76ef25U, 0x3e6fec503d36d7eeU,
  0xbe828622bf2975e3U, 0xbe75c2c9bef16d92U, 0xbf20ac32be872c2fU, 0xbf2bd617bee16e37U,
  0xbeab9640bece334eU, 0xbeb5d022bca9cb07U, 0xbd4191bfbe1e6c2aU, 0x3cf61e20be52c65aU,
  0xbc2ad7a83db7d5e2U, 0x3efa7b62bd317174U, 0x3dc810ad3e44f73dU, 0xbdcc116c3d8092b0U,
  0x3e0246973b0594f8U, 0x3c1ea53e3e232daaU, 0x3de247563e1f0c79U, 0xbd1c48d5bd1745cdU,
  0xbdd2ea97bbbab7e3U, 0xbeaa2f4f3d9f5509U, 0xbe9f2db7bd4c17efU, 0x3ee4e9aa3ca12336U,
  0x3e19425d3e1d4d48U, 0x3e6a51ed3ebac210U, 0x3e55a4c23e74669cU, 0x3e6ef8763e50cfaeU,
  0x3e52e6b83d46a621U, 0x3d80192039e7244bU, 0x3e1c61c5be1a7cdeU, 0x3b004e36bd0a1492U,
  0x3d8b26243d806256U, 0xbc12b56abe332d84U, 0xbecafc2f3dfadb79U, 0x3e81ced0bd6665cdU,
  0x3ed153543e646537U, 0x3df3a3853f011c4dU, 0x3c5ba878bdb5485dU, 0x3e95486c3ec3c945U,
  0x3d3cccac3da4b2d4U, 0x3e67c684bd947a8cU, 0x3dccab8e3bb6e5cdU, 0xbf0e0520bea429a6U,
  0x3e3fda463e1db5a0U, 0x3e47a1d63e364c60U, 0x3e0a1cacbc51475fU, 0x3d8be3dc3e6781ddU,
  0x3e02e4563e80aeaeU, 0xbe8566e83c5b807aU, 0xbd8e0be63d491f4cU, 0xbd6cf23d3ba73978U,
  0x3df754bd3e1d9cdbU, 0xbc9bace23d061bc9U, 0x3e1eb55dbca6b3e2U, 0x3dbbdfd23e449356U,
  0xbcb4c0543df490e0U, 0xbe01d4bd3be48b0dU, 0xbe170a29be87ac40U, 0xbe81ff64be1b30f5U,
  0xbd132c6c3e826c6bU, 0xbe3a1b1b3d0018e5U, 0x3eb9343ebd53883eU, 0x3eac85413ed82002U,
  0xbdba528cbe9a0f74U, 0x3d358c4abe1ed992U, 0x3eb77d183e6ddb2bU, 0xbe7fe9183ddde141U,
  0xbe0aa90bbd1eb25aU, 0x3d0648653e13ff84U, 0x3e096ffc3d9a8f2eU, 0xbdf9a293bd33635eU,
  0xbe0cc768bed579e9U, 0xbef5dcf7bee9154aU, 0xbe48ec74be8b2359U, 0xbe7ac43fbee9a39dU,
  0x3c89b2c8bcba6e08U, 0xbdb42908bde3e818U, 0xbdcf78cebd370cc7U, 0xbe623035bc311123U,
  0x3e2641dc3ead8839U, 0x3e77db3c3e2aa5ceU, 0xbd2c1f8a3e486ecfU, 0x3df032aebe075493U,
  0x3e86ed81bc96f472U, 0x3e298a253d272527U, 0xbe6c4ac6bb4ceb23U, 0x3e1fc463be08dc1fU,
  0x3d549b6b3e5b2e51U, 0x3bb094563d3d0a9dU, 0x3eb1d4d33e52e2e6U, 0x3de10c8a3e3ed8ebU,
  0x3e71a9d3bdca03ccU, 0x3e383bec3e3a1730U, 0x3c0261443ea5012dU, 0xbe0b0fe8bead6daaU,
  0x3e74d69cbde198ecU, 0x3e73e41abcc9047fU, 0xbc5de4923ecebbe3U, 0xbcb1ce97be16106dU,
  0x3e7260c5bc0e4cefU, 0x3ebd93513ddd6653U, 0x3eb91c3a3e5faf7dU, 0x3eba6cd03ea44fedU,
  0x3ec5bbc3bde1f1c1U, 0x3d8384633e3346b4U, 0x3e16f2953df752d0U, 0x3f3b795c3e9e8157U,
  0xbdeeebd63d9d9d54U, 0xbe15d216be8ee204U, 0x3e8c9b353df7263aU, 0xbead40963ded2b65U,
  0xbdd8f3153ee3828fU, 0xbe22dd703eb52ee6U, 0x3d139351be02cfb3U, 0x3e3878c43e175040U,
  0xbe95409fbe1a9b6dU, 0xbe168c2fbe83e70cU, 0xbe9535e6be67e337U, 0xbe830280be857e9bU,
  0xbe97b1193e7d4569U, 0xbeaaa568bf0c67e6U, 0xbf3ad2a4bd9b3d0eU, 0xbe5ca893beb7bd27U,
  0xbec817aeba5e590aU, 0xbe00b07dbe4e8e05U, 0xbeffecacbe8cb1dcU, 0xbdb52edebf0aad60U,
  0xbe842506be0b02e9U, 0xbefe37d6be8e26fbU, 0xbe46ea70bddfe07cU, 0x3e4b6daabf56c6c1U,
  0xbec5cdd9bdf66e90U, 0xbda95082be21f9d7U, 0xbd9523d1be921e7bU, 0x3dd18b18bf08db11U,
  0xbece0245bd82ac42U, 0xbd40474abe82d003U, 0xbdef5c97be4319d6U, 0xbd18fc6bbeb09a65U,
  0xbeebf1aabe41c634U, 0xbe976ad8bf08b641U, 0xbdcdb30ebf04752eU, 0xbeb345fdbdc9c6c5U,
  0xbe7a2aadbf0276b8U, 0xbeb2cda0bf135147U, 0x3af0cb0ebe3cacd5U, 0xbd30b2ca3d79f5bdU,
  0x3e94ea3fbdfb1953U, 0xbedd581f3dfedbc0U, 0xbdbe9fa4be9458f3U, 0x3e05b0263ddfa0cbU,
  0xbe758700bf50659fU, 0xbdcf0968be8bc3b8U, 0xbf1fca80beaf9c5cU, 0xbe71d273bebd85e5U,
  0x3dedadfa3ec31077U, 0x3df404fb3c05573cU, 0xbea0ed0f3dda210eU, 0x3e4a18ef3cb8cf5eU,
  0xbd300be4bd95082eU, 0x3b42cbfabe878c2bU, 0xbca1fa743d485f82U, 0x3d3e0019be260c91U,
  0x3d180f603d41a84aU, 0x3bacd834be91344bU, 0xbe0ac1db3bf5cee5U, 0x3e29d98a3e68eb82U,
  0xbda1fefd3c85bf0cU, 0xbdde3a15bd3dab6cU, 0xbd72429bbe3eb6a9U, 0x3c5bbb1fbe14c7aaU,
  0x3e46b7613e879c3eU, 0x3e75d8c3bc3effc8U, 0xbdaa9e38be914e5aU, 0x3da13da33e925db9U,
  0x3ddd43a6be7e8225U, 0x3d3df2f43e363769U, 0xbc664cf1be58f6d0U, 0x3e294762be1e8741U,
  0x3e7207d33f069986U, 0x3eb64c5c3e4417acU, 0x3e8f90243e4d4ad7U, 0xbd5875cd3eb9a4d0U,
  0x3d03e6123e43ef79U, 0xbe0f198bbd6ad850U, 0x3e292a54bdf45f77U, 0xbe1161013e69bb0dU,
  0xbd09f33f3e3ac90bU, 0x3d96f07fbdc19028U, 0x3d41e41abcbaa23dU, 0xbeb652dfbd88a61eU,
  0x3ecac7c93e217a24U, 0x3e466e783ef29848U, 0x3ef209b03e055fa4U, 0x3eaa81d63e29a937U,
  0xbd8567213d0d9c80U, 0xbec9cad6bee2b069U, 0xbe5205eabe13cd4fU, 0xbe358196be2ff54aU,
  0xbf05cc313e02133dU, 0xbed77825beb8d993U, 0xbdfb99e7beb0714bU, 0x3de5ab63be8a255bU,
  0xbee64d28bd9bd517U, 0xbeeda1d3be6167e0U, 0xbec12c2dbe807bddU, 0x3e544178be13afcbU,
  0xbe86dd683e982d41U, 0xbf114837bdf8ac33U, 0xbd93861abee792ccU, 0xbd2319e8bf14d76dU,
  0xbf0c7df0bdb52215U, 0x3e03a601be89053eU, 0xbf090b6cbf08d9d8U, 0xbe6945c13d0a1fdbU,
  0xbecea12f3db78760U, 0xbdd3224d3d873173U, 0xbd9d603c3e07e0f3U, 0x3e1bbb3bbdbdf3ceU,
  0xbd07df413f07c3eaU, 0xbe587db6be837e84U, 0xbd6ce692be1c87b6U, 0x3e92026ebe629e70U,
  0x3a9126e03af0e0d5U, 0x3a0bf27b38e2dbfeU, 0x39d0b71439057b0bU, 0x3b23c89c36b7a041U,
  0x3a97e8da3abd4fecU, 0x3abbcd773a3c56e1U, 0x3a33b2473ae20c28U, 0x3ac6a7b83a20c595U,
  0xb99a1e6f3ab063f6U, 0x37ba8d673a0fe017U, 0x3a8a6ed1395e77b0U, 0xbaa424513966368cU,
  0x3a2228623a542aafU, 0x3a1decaeb8862b20U, 0x39583a1f3adc7242U, 0x3b141161b8d63358U,
  0x386d0f3eba2259b5U, 0x39523df9ba86a755U, 0xb959ca4b3a4c2fd2U, 0x3ab512dfb9a49d55U,
  0xba4421f5b91d7fffU, 0xb8266e6438cae1fdU, 0x396e4c423a655b78U, 0x3a3fdc2b38a64f34U,
  0xb9b9c42cb8f55889U, 0x39899ba73a3876ddU, 0x39fdf7d2b9973bf6U, 0x3a115485b756285bU,
  0x3cb1da0dbdc18bedU, 0xbce315e13e031e94U, 0x3cbde0813ddae35fU, 0x3d7e606b3d3c2846U,
  0x3e88935e3d015fcdU, 0x3e71e5843e00f08cU, 0x3d54779fbda4cb9aU, 0x3eddf194bd384aaaU,
  0x3eec26273e9e6045U, 0x3e118aba3e1aec59U, 0x3e29ec663dd16676U, 0x3e73f7ed3de78084U,
  0x3e3cde923ca874b0U, 0x3e0604073e84a3dbU, 0x3e90f1b53ca07e7fU, 0x3ed51bfd3eb92ad1U,
  0x3eff805c3ef9564cU, 0x3f0462ef3db5da70U, 0x3de2a2553d66d876U, 0x3dc82f363e76309fU,
  0x3e984786bb229299U, 0x3d32b9dd3e630e6dU, 0x3e87eeab3d9e6a02U, 0x3e628c433e834d97U,
